#version: 0.2
Ġ ê¯
ê¯ ¤
ê¯ ¥
ê¯ Ĺ
ê¯ ¦
ê¯ £
ê¯ ¨
ê¯ Ķ
ê¯ ħ
č Ċ
ê¯ ģ
ê¯ ķ
Ġê¯ ĳ
ê¯ Ĵ
ê¯ Ŀ
ê¯ ı
ê¯ Ł
ê¯ Ń
ê¯ ©
ê¯ Ľ
ê¯ «
Ġê¯ ĥ
Ġê¯ «
ê¯ ĥ
ê¯ ĳ
ê¯ ĩ
Ġê¯ į
Ġê¯ ģ
ê¯ ¡
ê¯ Ģ
ê¯ Į
ê¯ ł
ê¯ §
ê¯ ĸ
Ġê¯ ĩ
Ġê¯ Ģ
Ġê¯ Ĥ
ê¯ Ī
Ġê¯ Į
ê¯ Ĥ
Ġê¯ĳ ê¯Ĺ
ê¯ Ħ
ê¯ ¢
Ġê¯ Ī
Ġê¯ ħ
ê¯ į
Ġê¯ Ĩ
Ġê¯ Ħ
ê¯ĳ ê¯Ĺ
ê¯ İ
ê¯ ľ
Ġê¯ Ĭ
ê¯ı ê¯ħ
ê¯ ī
ê¯ ª
ê¯¦ ê¯«
Ġê¯ Ĳ
ê¯ı ê¯Ĺ
ê¯ Ĩ
ê¯ ŀ
ê¯ Ĳ
ê¯ı ê¯Ķ
ê¯Ŀ ê¯ķ
Ġê¯ĥ ê¯Į
ê¯ Ĭ
Ġê¯ ı
ê¯Ł ê¯Ĺ
ê¯Ł ê¯ħ
ê¯ķ ê¯ħ
Ġê¯ĳ ê¯ĥ
ê¯ ĭ
ê¯Ľ ê¯ĳ
ê¯£ ê¯«
Ġ čĊ
ê¯ı ê¯ķ
ê¯Ľ ê¯ĩ
ê¯Ŀ ê¯Ĺ
ê¯Ķ ê¯Ĵ
Ġê¯ ī
ê¯ı ê¯Ĵ
ê¯¤ ê¯«
Ġê¯ Ĺ
ê¯ķ ê¯Ģ
Ġê¯ Ĵ
ê¯ł ê¯ĩ
Ġê¯ ĭ
ê¯¡ ê¯ī
ê¯ı ê¯Ł
ê¯¡ ê¯Ĺ
Ġê¯ ķ
ê¯ı ê¯ģ
ê¯Ľ ê¯Ħ
Ġê¯ ļ
ê¯ķ ê¯Ĺ
ê¯Ŀ ê¯ħ
ê¯ł ê¯Ĥ
ê¯Ŀ ê¯ĥ
ê¯Ľ ê¯Ģ
ê¯ĸ ê¯Ķ
ê¯¡ ê¯ģ
ê¯Ł ê¯Ĥ
ê¯ľ ê¯Ĥ
ê¯Ľ ê¯ģ
ê¯Ĺ ê¯ħ
ê¯Ĺ ê¯ķ
ê¯¥ ê¯«
Ġê¯ĳ ê¯Ŀ
Ġê¯ĥ ê¯ĩ
ê¯Ł ê¯ķ
ê¯ ļ
ê¯¡ ê¯ķ
ê¯¡ ê¯Ĵ
ê¯Ķ ê¯ģ
Ġê¯ĳ ê¯Ī
ê¯Ŀ ê¯Ĵ
ê¯Ł ê¯Ł
Ġê¯ĳ ê¯ħ
ê¯ı ê¯ĩ
Ġê¯ĥ ê¯ħ
ê¯Ł ê¯ģ
ê¯¦ ,
ê¯Ŀ ê¯ģ
Ġê¯ĥ ê¯Ķ
Ġê¯ İ
Ġê¯ Ķ
ê¯Ĺ ê¯Ĵ
ê¯Ķ ê¯Ľê¯ĳ
Ġê¯Ĩ ê¯ł
Ġê¯ĳ ê¯į
ê¯Ŀ ê¯Ł
Ġê¯ ĸ
ê¯ħ ê¯ķ
ê¯ŀ ê¯Ħ
ê¯Ł ê¯Ĵ
ê¯ł ê¯ģ
ê¯ł ê¯Ĩ
ê¯Ł ê¯ĸ
Ġê¯Ģ ê¯ĥ
ê¯ĥ ê¯Į
ê¯Ķ ê¯Ĺ
ê¯Ł ê¯ĩ
Ġê¯ħ ê¯łê¯ĩ
Ġê¯ı ê¯Ĩ
ê¯ıê¯ķ ê¯Ĺ
ê¯İ ê¯ķ
Ġê¯ī ê¯ģ
ê¯Ľ ê¯ŀ
ê¯ıê¯Ķ ê¯Ĵ
ê¯ °
ê¯Ŀ ê¯ĸ
ê¯ı ê¯ĥ
ê¯ı ê¯ĸ
ê¯ł ê¯Ħ
ê¯£ ,
ê¯ģ ê¯ĩ
Ġê¯Ī ê¯Ķ
ê¯Ķ ê¯ķ
Ġê¯ĳ ê¯ģ
Ġê¯ĳ ê¯ī
ê¯ķ ê¯Ĵ
Ġê¯ĥ ê¯Ĩ
ê¯İ ê¯Ĺ
Ġê¯ı ê¯ħ
ê¯Ķ ê¯ħ
ê¯ĸ ê¯ķ
ê¯¢ ê¯ħ
Ġê¯ Ŀ
ê¯ı ê¯Į
Ġê¯į ê¯Łê¯Ĺ
Ġê¯Ģ ê¯Ķ
Ġê¯ı ê¯ģ
ê¯Ľê¯Ħ ê¯Ĺ
Ġê¯ĥ ê¯ĥ
Ġê¯ĥ ê¯Ī
ê¯ĥ ê¯Ľ
Ġê¯ħ ê¯Ŀê¯ķ
Ġê¯Ĳ ê¯ĸ
ê¯Łê¯ħ ê¯ķ
ê¯ķ ê¯ģ
ê¯ı ê¯Ĳ
ê¯Ł ê¯ł
ê¯ľ ê¯ģ
ê¯Ķê¯Ĵ ê¯Ĺ
Ġê¯ĥê¯ĩ ê¯Ŀê¯Ĺ
ê¯ĥ ê¯ħ
ê¯ł ê¯ħ
Ġê¯ĳ ê¯ĭ
ê¯Ľê¯ĳ ê¯Ĵ
ê¯¤ ,
ê¯Ķ ê¯Ľ
ê¯Ŀ ê¯Ħ
ê¯Ľ ê¯Ĩ
Ġê¯ĥ ê¯ģ
ê¯¢ ê¯Ĺ
ê¯İ ê¯ĭ
ê¯ľ ê¯Ĺ
Ġê¯ ²
ê¯Ķ ê¯Ŀê¯ĥ
ê¯ģ ê¯Ł
ê¯Ĵ ê¯ħ
ê¯ı ê¯Ī
Ġê¯ĥ ê¯į
Ġê¯ĥ ê¯Ĭ
ê¯¡ ê¯ĥ
ê¯ĸ ê¯Ĺ
ê¯¢ ê¯Ĳ
ê¯Ĺ ê¯ķê¯ħ
ê¯¨ ê¯«
ê¯Ķ ê¯ķê¯ħ
ê¯ģ ê¯Ģ
ê¯ı ê¯į
ê¯Ł ê¯Ī
ê¯Ł ê¯ĸê¯Ķ
ê¯ł ê¯ŀ
ê¯İ ê¯Ķ
ê¯Ķ ê¯Ľê¯Ħ
ê¯ı ê¯ĸê¯Ķ
ê¯Ł ê¯ķê¯Ĺ
ê¯Ľ ê¯ħ
Ġê¯ĳê¯Ĺ ê¯Ĵ
ê¯¢ ê¯Ł
Ġê¯Ĩ ê¯łê¯Ĥ
ê¯İ ê¯Ł
ê¯Ĭ ê¯ĸê¯ķ
Ġê¯ı ê¯ķ
ê¯Ķê¯Ĵ ê¯ģ
ê¯ħ ê¯Ķ
ê¯ı ê¯Ĩ
ê¯¡ ê¯Ī
ê¯ł ê¯Ģ
ê¯ĸ ê¯Ĵ
Ġê¯Ģ ê¯Į
ê¯İ ê¯ģ
ê¯ŀ ê¯ĩ
Ġê¯ĳê¯ĥ ê¯Ĺ
ê¯ľê¯Ĥ ê¯Ĵ
ê¯ıê¯ĩ ê¯Ķ
ê¯Ķ ê¯Ĳ
ê¯Ĵ ê¯łê¯Ĥ
ê¯Ľ ê¯Ĥ
Ġê¯į ê¯Ķ
ê¯¡ ê¯ĸ
ê¯¢ ê¯Ĵ
ê¯ıê¯Ĺ ê¯ħ
ê¯ŀ ê¯Ĩ
Ġê¯ı ê¯ĥ
ê¯ıê¯ķ ê¯Ĵ
Ġê¯ĥê¯ħ ê¯Ŀê¯ģ
ê¯łê¯Ĩ ê¯Ķ
ê¯ ³
ê¯Ķ ê¯Ģ
ê¯ģ ê¯Ħ
Ġê¯ĳ ê¯Ķ
ê¯ı ê¯ķê¯ħ
ê¯Ł ê¯Ĭ
ê¯© -
ê¯Ľ ê¯Ī
ê¯ĥ ê¯Ĺ
ê¯ĳ ê¯Ī
Ġê¯Ĩ ê¯łê¯ĩ
ê¯ī ê¯ģ
ê¯Ĳ ê¯Ŀ
ê¯Ŀê¯ķ ê¯Ĺ
Ġê¯ĳê¯ĥ ê¯ħ
ê¯łê¯Ĥ ê¯Ĵ
ê¯Ŀê¯ĥ ê¯Ĵ
ê¯¥ ,
ê¯Ĺ ê¯Ł
ê¯¨ ê¯¨
ê¯ħ ê¯Ĺ
ê¯ģ ê¯ģ
ê¯ı ê¯Ģ
ê¯ĥ ê¯į
ê¯ĳ ê¯ģ
ê¯ĳ ê¯ĥ
ê¯ĩ ê¯Ĵ
ê¯¡ ê¯Ł
ê¯¡ ê¯ķê¯Ĺ
ê¯Ģ ê¯ĥ
Ġê¯ĥê¯ħ ê¯Ŀ
ê¯° ê¯°
ê¯¥ -
ê¯Ĺ ê¯Ķ
ê¯Ĺ ê¯ģ
ê¯Ķ ê¯ĩ
ê¯Ķ ê¯Ľê¯Ģ
ê¯Ĵ ê¯ģ
ê¯Ŀ ê¯ĩ
ê¯Ŀ ê¯Ĳ
ê¯Ŀ ê¯Ĭ
ê¯© ê¯«
ê¯Ľ ê¯ł
ê¯ĳ ê¯ī
ê¯Ģ ê¯Ķ
ê¯ĸ ê¯ħ
Ġê¯Ģ ê¯ħ
Ġê¯ħ ê¯į
Ġê¯Ĳ ê¯Ł
ê¯¡ê¯ī ê¯ģ
ê¯Ľê¯Ħ ê¯ħ
ê¯¡ê¯ķ ê¯ģ
ê¯Ŀê¯Ĵ ê¯ħ
Ġê¯² ê¯
Ġê¯ ±
ê¯Ķ ê¯Ľê¯ĩ
ê¯ķ ê¯ĩ
ê¯Ŀ ê¯į
ê¯ĳ ê¯ĩ
Ġê¯ģ ê¯Ħ
ê¯¡ ê¯ħ
ê¯Ģ ê¯ħ
Ġê¯Ī ê¯Ľê¯ĩ
Ġê¯Ī ê¯Łê¯Ĥ
Ġê¯Ī ê¯Łê¯ķ
ê¯ıê¯Ĺ ê¯Ĵ
ê¯ıê¯Ķ ê¯ķ
ê¯Ŀê¯ķ ê¯ģ
Ġê¯ĳê¯ĥ ê¯ģ
ê¯ıê¯ķ ê¯ģ
ê¯ıê¯Ł ê¯Ł
ê¯Ľê¯Ģ ê¯Ĺ
ê¯Łê¯ģ ê¯ĩê¯Ĵ
Ġê¯Ĩê¯ł ê¯Ħ
Ġê¯Ĩê¯ł ê¯ŀ
Ġ ĠčĊ
Ġê¯ ¢
ê¯Ĺ ê¯Ģ
ê¯Ķ ê¯ĸ
ê¯Ķ ê¯Ľê¯Ħê¯Ĺ
ê¯ħ ê¯Ģ
ê¯ķ ê¯Ľ
Ġê¯ĳ ê¯Ĵ
Ġê¯ĳ ê¯Ħ
Ġê¯ĳ ê¯Łê¯ķ
ê¯Ĵ ê¯Ĺ
ê¯ĥ ê¯ģ
ê¯ĥ ê¯ĥ
ê¯¡ ê¯ĩ
ê¯¡ ê¯Ĭ
ê¯Ģ ê¯Ĥ
ê¯ĸ ê¯Ł
Ġê¯Ģ ê¯Ĥ
ê¯Ī ê¯Ķ
ê¯į ê¯Łê¯Ĺ
ê¯ĳê¯Ĺ ê¯Ĵ
ê¯İ ê¯ħ
ê¯İ ê¯Ħ
Ġê¯Ĳ ê¯Ķ
ê¯ŀ ê¯ģ
ê¯Ĳ ê¯ķ
ê¯ıê¯Ķ ê¯ģ
ê¯Łê¯Ĺ ê¯Ĵ
ê¯Łê¯ħ ê¯ħ
ê¯Łê¯ħ ê¯ģ
ê¯Łê¯ħ ê¯Ĵ
Ġê¯ī ê¯Ŀê¯Ĺ
ê¯Ŀê¯ħ ê¯ģ
ê¯Łê¯Ĥ ê¯Ľê¯ĳ
Ġê¯ħê¯Ŀê¯ķ ê¯Ŀ
Ġê¯Ĳê¯ĸ ê¯Ł
Ġê¯ ³
ê¯Ķ ê¯ĥ
ê¯ħ ê¯ģ
Ġê¯ĳ ê¯Ģ
Ġê¯ĳ ê¯Ĳê¯ķ
ê¯Ŀ ê¯ĸê¯Ķ
ê¯ı ê¯ł
ê¯Ľ ê¯Ĭ
Ġê¯ĥ ê¯Ł
ê¯ĥ ê¯Ķ
ê¯ĥ ê¯Ī
ê¯ĳ ê¯į
ê¯ĩ ê¯ħ
ê¯ĩ ê¯¡
ê¯ł ê¯Ī
ê¯ĸ ê¯ķê¯ħ
ê¯İ ê¯Ĵ
ê¯İ ê¯į
ê¯ľ ê¯Ĵ
ê¯ıê¯ħ ê¯Ĺ
ê¯ŀ ê¯ŀ
ê¯ıê¯Ķ ê¯Ĺ
Ġê¯ı ê¯Ħ
Ġê¯ı ê¯Łê¯ĩ
ê¯Łê¯ħ ê¯Ķ
Ġê¯ī ê¯Ŀê¯ķ
Ġê¯Ĺ ê¯Ĵ
ê¯¡ê¯Ĺ ê¯Ĵ
ê¯Ľê¯Ħ ê¯ģ
ê¯Ľê¯Ģ ê¯ģ
ê¯Łê¯Ĥ ê¯Ĵ
ê¯ľê¯Ĥ ê¯Ľê¯ĳ
ê¯Ĺê¯ħ ê¯Ģ
Ġê¯Ĩê¯ł ê¯Ī
ê¯ıê¯Ķê¯Ĵ ê¯Ĺ
Ġê¯Ģê¯Ķ ê¯Ŀê¯ķ
ê¯¤ -
ê¯Ĺ ê¯Ĺ
ê¯¦ -
ê¯Ķ ê¯ł
ê¯ħ ê¯ħ
ê¯ħ ê¯łê¯ĩ
ê¯ģ ê¯ł
Ġê¯ĳ ê¯ĩ
ê¯Ĵ ê¯łê¯Ħ
ê¯Ŀ ê¯Ī
ê¯Ŀ ê¯Ĥ
ê¯ı ê¯Ŀ
ê¯ı ê¯ŀê¯ĩ
ê¯Ľ ê¯ĸ
Ġê¯ĥ ê¯Ģ
Ġê¯ĥ ê¯ī
Ġê¯ĥ ê¯Ĳ
ê¯ĥ ê¯Ĩ
ê¯ĥ ê¯Ľê¯ĩ
ê¯ĳ ê¯Ŀ
Ġê¯į ê¯Ľê¯Ĩ
ê¯Ģ ê¯Ł
ê¯Ģ ê¯Łê¯Ĺ
ê¯Ħ ê¯ŀ
ê¯¢ ê¯Łê¯ģê¯ĩê¯Ĵ
Ġê¯Ī ê¯ľê¯Ĥ
Ġê¯Ī ê¯ľê¯Ĥê¯Ĵ
ê¯İ ê¯Ī
ê¯İ ê¯Łê¯Ĺ
ê¯İ ê¯Łê¯ģ
ê¯ľ ê¯Ħ
Ġê¯Ĭ ê¯Ķ
Ġê¯Ĭ ê¯Ŀê¯ĸ
Ġê¯Ĭ ê¯ķê¯Ľ
ê¯ıê¯ħ ê¯ĥê¯Ľ
ê¯ª ê¯«
Ġê¯Ĳ ê¯ķ
ê¯ıê¯Ĺ ê¯Ĺ
ê¯ıê¯Ĺ ê¯ķ
ê¯ŀ ê¯ħ
ê¯ıê¯Ķ ê¯ħ
ê¯ıê¯Ķ ê¯ķê¯ħ
ê¯Ŀê¯ķ ê¯Ĵ
Ġê¯ı ê¯Ł
Ġê¯ı ê¯Ŀê¯Ħ
ê¯Łê¯ħ ê¯Ĺ
Ġê¯ĳê¯ĥ ê¯Ī
ê¯Ľê¯ĩ ê¯ħ
Ġê¯ī ê¯Ŀê¯ĥ
ê¯łê¯ĩ ê¯ħ
ê¯¡ê¯ī ê¯Ĵ
Ġê¯ķ ê¯ķ
ê¯ķê¯Ĺ ê¯Ĵ
ê¯łê¯Ĥ ê¯ģ
ê¯ĸê¯Ķ ê¯Ľê¯Ģ
ê¯Łê¯Ĥ ê¯Ĺ
ê¯Ľê¯ģ ê¯Ł
ê¯Ľê¯ģ ê¯ĩ
Ġê¯ĥê¯ĩ ê¯Ŀ
Ġê¯İ ê¯ĥ
Ġê¯İ ê¯łê¯Ĥ
ê¯ħê¯ķ ê¯Ĵ
ê¯łê¯Ĩ ê¯ķ
ê¯ıê¯ĸ ê¯Ĵ
Ġê¯ħê¯Ŀê¯ķ ê¯Ķ
ê¯Ķê¯Ľê¯Ħ ê¯ħ
ê¯Ľê¯Ĥ ê¯Ľê¯ĳ
ê¯ŀê¯Ĩ ê¯Ķê¯Ľê¯Ģ
ê¯³ ê¯°
ê¯ ²
ê¯ µ
Ġê¯ µ
Ġê¯ ¶
Ġê¯ Ł
ê¯¥ ê¯Ń
ê¯Ĺ ê¯Ľ
ê¯Ĺ ê¯ĥê¯Ľ
ê¯¨ ,
ê¯Ķ ê¯Ŀê¯ħ
ê¯Ķ ê¯Ŀê¯Ĵê¯ħ
ê¯ħ ê¯ł
ê¯ħ ê¯ķê¯ħ
ê¯ħ ê¯Ķê¯ģ
ê¯Ĵ ê¯Ŀ
ê¯Ĵ ê¯ľ
ê¯Ĵ ê¯łê¯Ĩê¯Ķ
ê¯ı ê¯Ħ
ê¯ı ê¯łê¯ģ
ê¯© ,
ê¯Ľ ê¯Ľ
ê¯Ľ ê¯İ
Ġê¯ĥ ê¯Ħ
ê¯ĥ ê¯Ł
ê¯ĥ ê¯ĩ
ê¯ĥ ê¯Ħ
ê¯ĥ ê¯ıê¯ħ
ê¯ĥ ê¯Ĭ
ê¯ĳ ê¯Ĳ
ê¯ĩ ê¯ķ
Ġê¯ģ ê¯Łê¯Ĺ
ê¯¡ ê¯Ģ
ê¯¡ ê¯į
ê¯¡ ê¯ķê¯ħ
ê¯ĸ ê¯Ģ
Ġê¯ĩ ê¯ħ
Ġê¯Ģ ê¯Ł
ê¯Ī ê¯ľ
ê¯Ī ê¯łê¯Ĩ
ê¯Ī ê¯ľê¯ģ
Ġê¯Į ê¯Ķ
ê¯¢ ê¯Ķ
ê¯¢ ê¯ķ
Ġê¯ħ ê¯Ŀê¯Ĺ
ê¯į ê¯ľê¯Ĥ
ê¯į ê¯Łê¯Ĵ
ê¯İ ê¯ķê¯ħ
ê¯ľ ê¯ħ
ê¯ľ ê¯ĩ
ê¯ľ ê¯ĸ
Ġê¯Ĭ ê¯Ŀê¯ĥ
Ġê¯Ĳ ê¯ħ
ê¯ıê¯Ĺ ê¯ħê¯ķ
ê¯ıê¯Ķ ê¯Ŀê¯ĥ
ê¯ıê¯Ķ ê¯Ľê¯ŀ
ê¯Ŀê¯ķ ê¯ħ
ê¯Ĭ ê¯ĸê¯Ķ
Ġê¯ı ê¯ĩ
ê¯Łê¯Ĺ ê¯Ĺ
ê¯Łê¯Ĺ ê¯ħ
ê¯Łê¯ħ ê¯ķê¯ħ
ê¯Łê¯ħ ê¯Ķê¯Ĵ
ê¯Łê¯ħ ê¯Ķê¯ģ
Ġê¯ĳê¯ĥ ê¯Ĵ
ê¯Ŀê¯Ĺ ê¯ģ
ê¯Ŀê¯Ĺ ê¯Ĵ
Ġê¯Ĺ ê¯ģ
ê¯Ŀê¯ħ ê¯ĥê¯Ľ
ê¯Ĺê¯ķ ê¯ģ
ê¯Ĺê¯ķ ê¯Ĵ
Ġê¯ĳê¯Ŀ ê¯ĩ
ê¯ļ ê¯Ķ
ê¯Ķê¯ģ ê¯Ł
ê¯ıê¯ĩ ê¯ķ
ê¯Ķê¯Ľê¯ĳ ê¯Ĵ
ê¯ŀê¯Ħ ê¯Ĺ
ê¯Łê¯Ĵ ê¯Ĺê¯ķ
ê¯ıê¯Ķê¯Ĵ ê¯ħ
ê¯ıê¯Ķê¯Ĵ ê¯ģ
Ġê¯ĳê¯ī ê¯Ŀê¯ķ
Ġê¯Ŀ ê¯ĩ
Ġê¯Ŀ ê¯Į
Ġê¯Ĳê¯ĸ ê¯Ĺ
Ġê¯Ĳê¯ĸ ê¯ħ
Ġê¯ĥê¯Ĳ ê¯Ŀê¯ģ
Ġê¯ ´
Ġê¯ ·
Ġê¯ ¸
Ġê¯ Ľ
ê¯¥ ê¯¥
ê¯Ĺ ê¯ĥ
ê¯Ĺ ê¯Į
ê¯¨ ê¯Ń
ê¯Ķ ê¯Ł
ê¯Ķ ê¯Ŀê¯Ĺ
ê¯Ķ ê¯ļ
ê¯ħ ê¯Ī
ê¯ħ ê¯Ķê¯Ĵ
ê¯ħ ê¯ķê¯Ģ
ê¯ģ ê¯ĭ
ê¯ķ ê¯Ķ
ê¯ķ ê¯Ŀ
ê¯ķ ê¯Ĥ
ê¯ķ ê¯Ľê¯ģ
Ġê¯ĳ ê¯Ĩ
Ġê¯ĳ ê¯ŀ
ê¯Ĵ ê¯Ī
ê¯Ĵ ê¯ŀ
ê¯Ĵ ê¯Ĺê¯ķê¯ħ
ê¯ı ê¯ĳ
ê¯ı ê¯Łê¯ħ
ê¯ı ê¯ļ
ê¯ı ê¯łê¯ħ
ê¯Ł ê¯ľ
ê¯Ł ê¯ī
ê¯Ł ê¯ķê¯ħ
ê¯Ł ê¯łê¯ģ
ê¯Ľ ê¯Ł
ê¯Ľ ê¯ĥ
ê¯Ľ ê¯ĳê¯Ĺ
ê¯Ľ ê¯ħê¯ķ
Ġê¯ĥ ê¯ĳ
ê¯ĥ ê¯Ĵ
ê¯ĳ ê¯ħ
ê¯ĳ ê¯Ħ
ê¯ĳ ê¯ŀ
Ġê¯į ê¯Į
Ġê¯į ê¯Łê¯Ł
Ġê¯į ê¯Łê¯ĸ
Ġê¯ģ ê¯Ŀ
Ġê¯ģ ê¯Łê¯Ĭ
ê¯¡ ê¯Ĥ
ê¯¡ ê¯Ĩ
ê¯¡ ê¯ĥê¯Ľ
ê¯Į ê¯Ķ
ê¯ł ê¯ķ
ê¯ł ê¯ħê¯ķ
ê¯ĸ ê¯ł
ê¯ĸ ê¯Ķê¯Ĵ
Ġê¯ĩ ê¯Ķ
Ġê¯ĩ ê¯Ľ
Ġê¯Ģ ê¯Łê¯Ł
Ġê¯Ĥ ê¯Ŀê¯ķ
Ġê¯Ĥ ê¯Ŀê¯Ĳ
ê¯Ī ê¯Łê¯Ĺ
ê¯Ĥ ê¯Ķ
ê¯Ĥ ê¯ŀ
ê¯Ħ ê¯ģ
ê¯¢ ê¯ģ
ê¯¢ ê¯ĳ
ê¯¢ ê¯ĩ
ê¯¢ ê¯Ģ
ê¯¢ ê¯Ī
Ġê¯Ī ê¯ĸ
Ġê¯Ī ê¯Łê¯Ĺ
Ġê¯Ī ê¯Ķê¯Ĺ
Ġê¯Ī ê¯Łê¯ĸê¯Ķ
Ġê¯ħ ê¯Ħ
ê¯İ ê¯ĳ
ê¯İ ê¯Į
ê¯İ ê¯ĸ
ê¯İ ê¯ĸê¯Ķ
ê¯İ ê¯Ķê¯ķ
ê¯ľ ê¯ŀ
ê¯ıê¯ħ ê¯ģ
ê¯ıê¯ħ ê¯Ĵ
ê¯ī ê¯ħ
ê¯ī ê¯Ĵ
ê¯ıê¯Ĺ ê¯ģ
ê¯ıê¯Ĺ ê¯Ł
ê¯ıê¯Ĺ ê¯ł
ê¯ŀ ê¯Ģ
ê¯ŀ ê¯Ī
ê¯Ĳ ê¯ĩ
ê¯ıê¯Ķ ê¯Ľê¯ĳ
ê¯Ĭ ê¯ģ
Ġê¯ı ê¯Ĺ
Ġê¯ı ê¯Ģ
Ġê¯ı ê¯ļ
ê¯Łê¯Ĺ ê¯ģ
Ġê¯ĳê¯ĥ ê¯ĩ
Ġê¯ĳê¯ĥ ê¯łê¯ĩ
ê¯Ľê¯ĳ ê¯ķê¯ħ
ê¯Ľê¯ĳ ê¯Ŀê¯Ĺ
ê¯ıê¯ķ ê¯Ģ
ê¯Ľê¯ĩ ê¯Ĺ
ê¯Ķê¯Ĵ ê¯ħ
Ġê¯ī ê¯Ķ
Ġê¯ī ê¯Ŀê¯ĸ
Ġê¯ī ê¯Ŀê¯į
ê¯ıê¯Ĵ ê¯ģ
Ġê¯Ĺ ê¯ħ
Ġê¯Ĺ ê¯Ķê¯Ģ
ê¯łê¯ĩ ê¯ķ
ê¯¡ê¯Ĺ ê¯Ĺ
ê¯Ľê¯Ħ ê¯Ĵ
Ġê¯ļ ê¯Ĥ
ê¯Ŀê¯ħ ê¯ķ
ê¯Ľê¯Ģ ê¯ħ
ê¯ĸê¯Ķ ê¯ħ
ê¯Łê¯ķ ê¯Ĵ
ê¯Łê¯ģ ê¯Ł
Ġê¯ĥê¯Ķ ê¯Ŀ
Ġê¯İ ê¯ķ
Ġê¯İ ê¯łê¯Ĩ
ê¯Ķê¯Ľê¯ĳ ê¯ħ
Ġê¯Ĩê¯ł ê¯Ģ
ê¯Łê¯Ĵ ê¯Ĺ
ê¯Łê¯ĸ ê¯Ĺ
ê¯Łê¯ĸ ê¯Ķê¯Ĵ
ê¯ıê¯ĥ ê¯Ĺ
ê¯ıê¯ĥ ê¯Ľ
Ġê¯įê¯Łê¯Ĺ ê¯Ľê¯ĩ
Ġê¯ĥê¯Ī ê¯ľ
ê¯ıê¯Ĳ ê¯ģ
Ġê¯ĥê¯ĩê¯Ŀê¯Ĺ ê¯ģ
ê¯ĥê¯ħ ê¯Ŀê¯ĸ
ê¯Ŀê¯Ħ ê¯Ķ
ê¯ıê¯Ī ê¯łê¯Ĥ
Ġê¯²ê¯ ´
Ġê¯¢ ê¯Łê¯ģê¯ĩê¯Ĵ
Ġê¯ıê¯Ł ê¯Ĳ
Ġê¯İê¯łê¯Ĥ ê¯Ľê¯Ģ
ê¯Ĺê¯ĥê¯Ľ ê¯ł
± ê¯°ê¯°
ê¯ ´
ê¯ ¶
ê¯ ·
ê¯ Ļ
ê¯ ±ê¯°ê¯°
Ġê¯ Ļ
ê¯£ -
ê¯£ ê¯¤
ê¯Ķ ê¯Ķ
ê¯Ķ ê¯Ħ
ê¯Ķ ê¯Ŀê¯ķ
ê¯Ķ ê¯ķê¯Ģ
ê¯Ķ ê¯Ŀê¯Ĵ
ê¯Ķ ê¯Ľê¯ŀ
ê¯Ķ ê¯Ŀê¯į
ê¯ħ ê¯ĸ
ê¯ħ ê¯į
ê¯ģ ê¯ħ
ê¯ģ ê¯ķ
ê¯ģ ê¯ĥ
ê¯ģ ê¯Ĩ
ê¯ģ ê¯Łê¯ģ
ê¯ķ ê¯Ł
ê¯ķ ê¯ĸ
Ġê¯ĳ ê¯Į
Ġê¯ĳ ê¯ıê¯Ĺ
Ġê¯ĳ ê¯Ĭ
ê¯Ĵ ê¯Ĺê¯ķ
ê¯Ĵ ê¯łê¯Ĩ
ê¯Ĵ ê¯łê¯ħ
ê¯Ĵ ê¯ľê¯Ĺ
ê¯Ĵ ê¯łê¯ŀ
ê¯Ŀ ê¯ł
ê¯ı ê¯ŀ
ê¯ı ê¯Ĭ
ê¯ı ê¯Ŀê¯Ĺ
ê¯ı ê¯ľê¯Ĵ
ê¯Ł ê¯ĥ
ê¯Ł ê¯Ģ
ê¯Ł ê¯ľê¯Ĥ
ê¯Ł ê¯Ķê¯ģ
ê¯Ń ê¯¨
ê¯Ľ ê¯ı
Ġê¯ĥ ê¯Ĺ
Ġê¯ĥ ê¯Ĵ
Ġê¯ĥ ê¯Ŀ
Ġê¯ĥ ê¯ľê¯ĩ
ê¯ĥ ê¯ķ
ê¯ĥ ê¯ī
ê¯ĳ ê¯Į
ê¯ĳ ê¯Ĥ
ê¯ĳ ê¯Ĩ
ê¯ĳ ê¯ĭ
ê¯ĩ ê¯ģ
ê¯ĩ ê¯ķê¯ħ
Ġê¯į ê¯Łê¯ħ
Ġê¯į ê¯Łê¯Ĥ
Ġê¯į ê¯ľê¯Ĥ
Ġê¯į ê¯ľê¯Ĥê¯Ĵ
Ġê¯į ê¯Łê¯Ĭ
Ġê¯ģ ê¯ħ
Ġê¯ģ ê¯ķ
Ġê¯ģ ê¯Ľ
Ġê¯ģ ê¯ĩ
Ġê¯ģ ê¯Ŀê¯ķ
Ġê¯ģ ê¯Ŀê¯ħ
ê¯¡ ê¯ĳê¯ŀ
ê¯Ģ ê¯Ĵ
ê¯Ģ ê¯ľ
ê¯ł ê¯Ķ
ê¯ł ê¯Ĳ
ê¯ĸ ê¯Ī
ê¯ĸ ê¯ķê¯Ĺ
Ġê¯ĩ ê¯ģ
Ġê¯ĩ ê¯Ĵ
Ġê¯Ģ ê¯Ĺ
Ġê¯Ĥ ê¯Ł
ê¯Ī ê¯łê¯Ĥ
ê¯Ī ê¯Łê¯ĸ
ê¯Ī ê¯ľê¯Ĺ
ê¯Ī ê¯Ľê¯ĩê¯ħ
ê¯Ĥ ê¯ķ
ê¯Ħ ê¯ģê¯Ł
ê¯¢ ê¯Ķê¯Ĵ
ê¯¢ ê¯ļ
Ġê¯Ī ê¯Ķê¯ģ
Ġê¯Ī ê¯Łê¯Ĵ
Ġê¯Ī ê¯Łê¯ķê¯Ĺ
Ġê¯ħ ê¯ĩ
Ġê¯ħ ê¯Ŀê¯ħ
Ġê¯ħ ê¯Ŀê¯ĥ
Ġê¯ħ ê¯Ŀê¯Ĵ
ê¯į ê¯Łê¯ħ
ê¯į ê¯Łê¯Ĥ
Ġê¯Ĩ ê¯Ķ
Ġê¯Ĩ ê¯ŀ
Ġê¯Ĩ ê¯ŀê¯ĩ
Ġê¯Ħ ê¯Ĥ
Ġê¯Ħ ê¯Ŀê¯Ĺ
ê¯İ ê¯¢
ê¯İ ê¯ķê¯Ĺ
ê¯İ ê¯Ĺê¯ķ
ê¯İ ê¯Ķê¯Ľê¯ĳ
ê¯İ ê¯ħê¯ķ
ê¯İ ê¯Ķê¯Ĵê¯Ĺ
ê¯ľ ê¯į
ê¯ľ ê¯ļ
ê¯ľ ê¯Ĺê¯Ĵ
Ġê¯Ĭ ê¯ķ
Ġê¯Ĭ ê¯Ľê¯Ħê¯Ĺ
Ġê¯Ĭ ê¯Ŀê¯Ĵê¯ħ
Ġê¯Ĭ ê¯Ľê¯Ģê¯Ĺ
ê¯ıê¯ħ ê¯ħ
ê¯ıê¯ħ ê¯ķ
ê¯ıê¯ħ ê¯Ģ
ê¯ıê¯ħ ê¯ķê¯Ĺ
ê¯ī ê¯Ĺ
ê¯ī ê¯Ľ
ê¯ī ê¯Ģ
ê¯ī ê¯Ľê¯ĳ
ê¯ī ê¯Ŀê¯Ĺ
Ġê¯Ĳ ê¯Ŀ
Ġê¯Ĳ ê¯ĸê¯ķ
Ġê¯Ĳ ê¯ĸê¯Ķê¯ħ
ê¯ıê¯Ĺ ê¯Ķ
ê¯ıê¯Ĺ ê¯ĩ
ê¯ıê¯Ĺ ê¯ķê¯Ĺ
ê¯ıê¯Ĺ ê¯ĩê¯Ĵ
ê¯ŀ ê¯Ĥ
ê¯ŀ ê¯Ĭ
ê¯ŀ ê¯Ĳê¯Ŀ
ê¯ŀ ê¯Ģê¯ħ
ê¯Ĳ ê¯Ł
ê¯Ĳ ê¯ĸ
ê¯Ĳ ê¯Ŀê¯Ĺ
ê¯Ĳ ê¯ĸê¯Ł
ê¯ıê¯Ķ ê¯ŀ
ê¯ıê¯Ķ ê¯ķê¯Ĺ
ê¯Ŀê¯ķ ê¯Łê¯Ĺ
Ġê¯ı ê¯Į
Ġê¯ı ê¯Ĭ
Ġê¯ı ê¯Ŀê¯Ĳ
ê¯Łê¯Ĺ ê¯Ł
ê¯Łê¯ħ ê¯Ĭ
ê¯Łê¯ħ ê¯ĸê¯ķ
ê¯Łê¯ħ ê¯Ķê¯Ŀê¯ĥ
Ġê¯ĳê¯ĥ ê¯Ķ
Ġê¯ĳê¯ĥ ê¯Ŀ
Ġê¯ĳê¯ĥ ê¯Ĺê¯Ĵ
ê¯ĭ ê¯Ķ
ê¯Ľê¯ĳ ê¯Ŀê¯ĥ
ê¯Ľê¯ĩ ê¯Ķ
ê¯Ŀê¯Ĺ ê¯Ģ
ê¯Ŀê¯Ĺ ê¯ķê¯Ĺ
ê¯Ķê¯Ĵ ê¯Ł
ê¯Ķê¯Ĵ ê¯Ģ
Ġê¯ī ê¯Ŀê¯Ī
ê¯ıê¯Ĵ ê¯Ĺê¯ķê¯ħ
Ġê¯Ĺ ê¯Ł
Ġê¯Ĺ ê¯Ľ
Ġê¯Ĺ ê¯ĥê¯Ľê¯ĩ
ê¯łê¯ĩ ê¯Ł
ê¯¡ê¯ī ê¯ĳ
ê¯¡ê¯ī ê¯ķê¯ħ
ê¯ıê¯Ł ê¯ĩ
ê¯ıê¯Ł ê¯ĸ
ê¯¡ê¯Ĺ ê¯ħ
ê¯¡ê¯Ĺ ê¯ģ
ê¯¡ê¯Ĺ ê¯ķ
Ġê¯ķ ê¯ĩ
ê¯ıê¯ģ ê¯ħ
ê¯Ŀê¯ħ ê¯Ĺ
ê¯łê¯Ĥ ê¯Ľê¯ĳê¯Ĵ
ê¯Ŀê¯ĥ ê¯ķê¯ħ
ê¯Łê¯Ĥ ê¯ħ
ê¯ľê¯Ĥ ê¯ģ
ê¯ľê¯Ĥ ê¯Ŀê¯ĥ
ê¯Ľê¯ģ ê¯Ģ
ê¯Ľê¯ģ ê¯Łê¯ģ
Ġê¯ĳê¯Ŀ ê¯ģ
Ġê¯ĳê¯Ŀ ê¯Ĳ
ê¯¡ê¯ķ ê¯Ĵ
ê¯¡ê¯Ĵ ê¯Ĺê¯ķ
Ġê¯ĥê¯Ķ ê¯Ľê¯ĩ
Ġê¯İ ê¯Ĺ
Ġê¯İ ê¯Ķ
Ġê¯İ ê¯Ķê¯ķ
Ġê¯İ ê¯łê¯Ģ
Ġê¯İ ê¯ħê¯Ķê¯Ĵ
Ġê¯Ķ ê¯ħ
Ġê¯Ĩê¯ł ê¯ħ
Ġê¯Ĩê¯ł ê¯ģ
Ġê¯Ĩê¯ł ê¯ħê¯ķ
Ġê¯Ĩê¯ł ê¯ħê¯Ķ
Ġê¯Ĩê¯ł ê¯Ģê¯ħ
Ġê¯ĳê¯į ê¯Ł
Ġê¯ĳê¯į ê¯Łê¯ħ
ê¯ħê¯ķ ê¯ģ
ê¯ŀê¯Ħ ê¯Ĵ
ê¯Łê¯ĸ ê¯Ī
ê¯Ķê¯Ĺ ê¯ķê¯ħ
Ġê¯ıê¯Ĩ ê¯Łê¯ħ
ê¯ıê¯Ķê¯Ĵ ê¯Ł
ê¯Ŀê¯ĸ ê¯Ĵ
ê¯ıê¯ĸ ê¯ħ
ê¯łê¯Ħ ê¯Ĺ
ê¯łê¯Ħ ê¯ħ
ê¯łê¯Ħ ê¯ģ
ê¯łê¯Ħ ê¯Ĵ
ê¯ģê¯ĩ ê¯Ĺ
Ġê¯ĳê¯ī ê¯Ŀ
ê¯¢ê¯ħ ê¯Ĵ
Ġê¯ħê¯Ŀê¯ķ ê¯Ķê¯Ĺ
Ġê¯Ĳê¯ĸ ê¯Łê¯Ł
ê¯ĥê¯ħ ê¯Ŀê¯ģ
ê¯Ľê¯Ĩ ê¯Ķ
ê¯Ľê¯Ĩ ê¯į
Ġê¯ĥê¯ģ ê¯Ľ
ê¯¢ê¯Ĺ ê¯Ĺ
Ġê¯ĥê¯Ĭ ê¯Łê¯ĩ
ê¯¡ê¯ĥ ê¯Łê¯Ĺê¯ħ
ê¯Łê¯ĸê¯Ķ ê¯Ľê¯Ģ
ê¯Ķê¯Ľê¯Ħ ê¯ģ
ê¯ħê¯Ķ ê¯Ŀê¯ķ
ê¯¡ê¯Ī ê¯łê¯Ĥ
ê¯Ĵê¯łê¯Ĥ ê¯Ľê¯Ħ
ê¯Ĵê¯łê¯Ĥ ê¯Ľê¯Ģê¯Ĺ
ê¯ıê¯Ĺê¯ħ ê¯Ģ
ê¯łê¯Ĩê¯Ķ ê¯Ľê¯Ģ
Ġê¯Ĩê¯łê¯ĩ ê¯ħê¯ķ
ê¯Ŀê¯ĥê¯Ĵ ê¯Ĺ
ê¯Ŀê¯Ĳ ê¯Ŀê¯Ĺ
ê¯Ģê¯Ķ ê¯Ŀê¯ķ
Ġê¯²ê¯ ¶
Ġê¯²ê¯ ¸
Ġê¯± ê¯°
ê¯Ŀê¯į ê¯Łê¯ķ
Ġê¯Īê¯Ľê¯ĩ ê¯Ĺ
Ġê¯Ĩê¯łê¯Ħ ê¯Ĵ
ê¯įê¯Łê¯Ĺ ê¯Ľê¯Ģ
ê¯Łê¯ħê¯Ĵ ê¯Ĺê¯ķ
Ġê¯īê¯Ŀê¯Ĺ ê¯ķ
ê¯ĥê¯Ī ê¯ľ
ê¯İê¯į ê¯Łê¯Ĥê¯Ľê¯ĳ
ê¯ľê¯Ĥê¯Ľê¯ĳ ê¯ħ
ê¯ĥê¯Ľê¯ĩ ê¯ķê¯ħ
ê¯Ģê¯Łê¯Ĺ ê¯Ł
ê¯Ħê¯ŀ ê¯Ĵ
ê¯Ľê¯İ ê¯Ķê¯Ĵ
ê¯įê¯Łê¯Ĵ ê¯ħ
Ġê¯įê¯Łê¯ĸ ê¯ķê¯Ŀ
