{
  "version": "1.0",
  "truncation": null,
  "padding": null,
  "added_tokens": [
    {
      "id": 0,
      "content": "<s>",
      "single_word": false,
      "lstrip": false,
      "rstrip": false,
      "normalized": false,
      "special": true
    },
    {
      "id": 1,
      "content": "<pad>",
      "single_word": false,
      "lstrip": false,
      "rstrip": false,
      "normalized": false,
      "special": true
    },
    {
      "id": 2,
      "content": "</s>",
      "single_word": false,
      "lstrip": false,
      "rstrip": false,
      "normalized": false,
      "special": true
    },
    {
      "id": 3,
      "content": "<unk>",
      "single_word": false,
      "lstrip": false,
      "rstrip": false,
      "normalized": false,
      "special": true
    },
    {
      "id": 4,
      "content": "<mask>",
      "single_word": false,
      "lstrip": false,
      "rstrip": false,
      "normalized": false,
      "special": true
    }
  ],
  "normalizer": null,
  "pre_tokenizer": {
    "type": "ByteLevel",
    "add_prefix_space": false,
    "trim_offsets": true,
    "use_regex": true
  },
  "post_processor": null,
  "decoder": {
    "type": "ByteLevel",
    "add_prefix_space": true,
    "trim_offsets": true,
    "use_regex": true
  },
  "model": {
    "type": "BPE",
    "dropout": null,
    "unk_token": null,
    "continuing_subword_prefix": null,
    "end_of_word_suffix": null,
    "fuse_unk": false,
    "byte_fallback": false,
    "ignore_merges": false,
    "vocab": {
      "<s>": 0,
      "<pad>": 1,
      "</s>": 2,
      "<unk>": 3,
      "<mask>": 4,
      ",": 5,
      "-": 6,
      ":": 7,
      "f": 8,
      "¡": 9,
      "¢": 10,
      "£": 11,
      "¤": 12,
      "¥": 13,
      "¦": 14,
      "§": 15,
      "¨": 16,
      "©": 17,
      "ª": 18,
      "«": 19,
      "¯": 20,
      "°": 21,
      "±": 22,
      "²": 23,
      "³": 24,
      "´": 25,
      "µ": 26,
      "¶": 27,
      "·": 28,
      "¸": 29,
      "¹": 30,
      "ê": 31,
      "Ċ": 32,
      "č": 33,
      "Ġ": 34,
      "Ģ": 35,
      "ģ": 36,
      "Ĥ": 37,
      "ĥ": 38,
      "Ħ": 39,
      "ħ": 40,
      "Ĩ": 41,
      "ĩ": 42,
      "Ī": 43,
      "ī": 44,
      "Ĭ": 45,
      "ĭ": 46,
      "Į": 47,
      "į": 48,
      "İ": 49,
      "ı": 50,
      "Ĳ": 51,
      "ĳ": 52,
      "Ĵ": 53,
      "Ķ": 54,
      "ķ": 55,
      "ĸ": 56,
      "Ĺ": 57,
      "Ļ": 58,
      "ļ": 59,
      "Ľ": 60,
      "ľ": 61,
      "Ŀ": 62,
      "ŀ": 63,
      "Ł": 64,
      "ł": 65,
      "Ń": 66,
      "ê¯": 67,
      "Ġê¯": 68,
      "ê¯¤": 69,
      "ê¯¥": 70,
      "ê¯Ĺ": 71,
      "ê¯¦": 72,
      "ê¯£": 73,
      "ê¯¨": 74,
      "ê¯Ķ": 75,
      "ê¯ħ": 76,
      "čĊ": 77,
      "ê¯ģ": 78,
      "ê¯ķ": 79,
      "Ġê¯ĳ": 80,
      "ê¯Ĵ": 81,
      "ê¯Ŀ": 82,
      "ê¯ı": 83,
      "ê¯Ł": 84,
      "ê¯Ń": 85,
      "ê¯©": 86,
      "ê¯Ľ": 87,
      "ê¯«": 88,
      "Ġê¯ĥ": 89,
      "Ġê¯«": 90,
      "ê¯ĥ": 91,
      "ê¯ĳ": 92,
      "ê¯ĩ": 93,
      "Ġê¯į": 94,
      "Ġê¯ģ": 95,
      "ê¯¡": 96,
      "ê¯Ģ": 97,
      "ê¯Į": 98,
      "ê¯ł": 99,
      "ê¯§": 100,
      "ê¯ĸ": 101,
      "Ġê¯ĩ": 102,
      "Ġê¯Ģ": 103,
      "Ġê¯Ĥ": 104,
      "ê¯Ī": 105,
      "Ġê¯Į": 106,
      "ê¯Ĥ": 107,
      "Ġê¯ĳê¯Ĺ": 108,
      "ê¯Ħ": 109,
      "ê¯¢": 110,
      "Ġê¯Ī": 111,
      "Ġê¯ħ": 112,
      "ê¯į": 113,
      "Ġê¯Ĩ": 114,
      "Ġê¯Ħ": 115,
      "ê¯ĳê¯Ĺ": 116,
      "ê¯İ": 117,
      "ê¯ľ": 118,
      "Ġê¯Ĭ": 119,
      "ê¯ıê¯ħ": 120,
      "ê¯ī": 121,
      "ê¯ª": 122,
      "ê¯¦ê¯«": 123,
      "Ġê¯Ĳ": 124,
      "ê¯ıê¯Ĺ": 125,
      "ê¯Ĩ": 126,
      "ê¯ŀ": 127,
      "ê¯Ĳ": 128,
      "ê¯ıê¯Ķ": 129,
      "ê¯Ŀê¯ķ": 130,
      "Ġê¯ĥê¯Į": 131,
      "ê¯Ĭ": 132,
      "Ġê¯ı": 133,
      "ê¯Łê¯Ĺ": 134,
      "ê¯Łê¯ħ": 135,
      "ê¯ķê¯ħ": 136,
      "Ġê¯ĳê¯ĥ": 137,
      "ê¯ĭ": 138,
      "ê¯Ľê¯ĳ": 139,
      "ê¯£ê¯«": 140,
      "ĠčĊ": 141,
      "ê¯ıê¯ķ": 142,
      "ê¯Ľê¯ĩ": 143,
      "ê¯Ŀê¯Ĺ": 144,
      "ê¯Ķê¯Ĵ": 145,
      "Ġê¯ī": 146,
      "ê¯ıê¯Ĵ": 147,
      "ê¯¤ê¯«": 148,
      "Ġê¯Ĺ": 149,
      "ê¯ķê¯Ģ": 150,
      "Ġê¯Ĵ": 151,
      "ê¯łê¯ĩ": 152,
      "Ġê¯ĭ": 153,
      "ê¯¡ê¯ī": 154,
      "ê¯ıê¯Ł": 155,
      "ê¯¡ê¯Ĺ": 156,
      "Ġê¯ķ": 157,
      "ê¯ıê¯ģ": 158,
      "ê¯Ľê¯Ħ": 159,
      "Ġê¯ļ": 160,
      "ê¯ķê¯Ĺ": 161,
      "ê¯Ŀê¯ħ": 162,
      "ê¯łê¯Ĥ": 163,
      "ê¯Ŀê¯ĥ": 164,
      "ê¯Ľê¯Ģ": 165,
      "ê¯ĸê¯Ķ": 166,
      "ê¯¡ê¯ģ": 167,
      "ê¯Łê¯Ĥ": 168,
      "ê¯ľê¯Ĥ": 169,
      "ê¯Ľê¯ģ": 170,
      "ê¯Ĺê¯ħ": 171,
      "ê¯Ĺê¯ķ": 172,
      "ê¯¥ê¯«": 173,
      "Ġê¯ĳê¯Ŀ": 174,
      "Ġê¯ĥê¯ĩ": 175,
      "ê¯Łê¯ķ": 176,
      "ê¯ļ": 177,
      "ê¯¡ê¯ķ": 178,
      "ê¯¡ê¯Ĵ": 179,
      "ê¯Ķê¯ģ": 180,
      "Ġê¯ĳê¯Ī": 181,
      "ê¯Ŀê¯Ĵ": 182,
      "ê¯Łê¯Ł": 183,
      "Ġê¯ĳê¯ħ": 184,
      "ê¯ıê¯ĩ": 185,
      "Ġê¯ĥê¯ħ": 186,
      "ê¯Łê¯ģ": 187,
      "ê¯¦,": 188,
      "ê¯Ŀê¯ģ": 189,
      "Ġê¯ĥê¯Ķ": 190,
      "Ġê¯İ": 191,
      "Ġê¯Ķ": 192,
      "ê¯Ĺê¯Ĵ": 193,
      "ê¯Ķê¯Ľê¯ĳ": 194,
      "Ġê¯Ĩê¯ł": 195,
      "Ġê¯ĳê¯į": 196,
      "ê¯Ŀê¯Ł": 197,
      "Ġê¯ĸ": 198,
      "ê¯ħê¯ķ": 199,
      "ê¯ŀê¯Ħ": 200,
      "ê¯Łê¯Ĵ": 201,
      "ê¯łê¯ģ": 202,
      "ê¯łê¯Ĩ": 203,
      "ê¯Łê¯ĸ": 204,
      "Ġê¯Ģê¯ĥ": 205,
      "ê¯ĥê¯Į": 206,
      "ê¯Ķê¯Ĺ": 207,
      "ê¯Łê¯ĩ": 208,
      "Ġê¯ħê¯łê¯ĩ": 209,
      "Ġê¯ıê¯Ĩ": 210,
      "ê¯ıê¯ķê¯Ĺ": 211,
      "ê¯İê¯ķ": 212,
      "Ġê¯īê¯ģ": 213,
      "ê¯Ľê¯ŀ": 214,
      "ê¯ıê¯Ķê¯Ĵ": 215,
      "ê¯°": 216,
      "ê¯Ŀê¯ĸ": 217,
      "ê¯ıê¯ĥ": 218,
      "ê¯ıê¯ĸ": 219,
      "ê¯łê¯Ħ": 220,
      "ê¯£,": 221,
      "ê¯ģê¯ĩ": 222,
      "Ġê¯Īê¯Ķ": 223,
      "ê¯Ķê¯ķ": 224,
      "Ġê¯ĳê¯ģ": 225,
      "Ġê¯ĳê¯ī": 226,
      "ê¯ķê¯Ĵ": 227,
      "Ġê¯ĥê¯Ĩ": 228,
      "ê¯İê¯Ĺ": 229,
      "Ġê¯ıê¯ħ": 230,
      "ê¯Ķê¯ħ": 231,
      "ê¯ĸê¯ķ": 232,
      "ê¯¢ê¯ħ": 233,
      "Ġê¯Ŀ": 234,
      "ê¯ıê¯Į": 235,
      "Ġê¯įê¯Łê¯Ĺ": 236,
      "Ġê¯Ģê¯Ķ": 237,
      "Ġê¯ıê¯ģ": 238,
      "ê¯Ľê¯Ħê¯Ĺ": 239,
      "Ġê¯ĥê¯ĥ": 240,
      "Ġê¯ĥê¯Ī": 241,
      "ê¯ĥê¯Ľ": 242,
      "Ġê¯ħê¯Ŀê¯ķ": 243,
      "Ġê¯Ĳê¯ĸ": 244,
      "ê¯Łê¯ħê¯ķ": 245,
      "ê¯ķê¯ģ": 246,
      "ê¯ıê¯Ĳ": 247,
      "ê¯Łê¯ł": 248,
      "ê¯ľê¯ģ": 249,
      "ê¯Ķê¯Ĵê¯Ĺ": 250,
      "Ġê¯ĥê¯ĩê¯Ŀê¯Ĺ": 251,
      "ê¯ĥê¯ħ": 252,
      "ê¯łê¯ħ": 253,
      "Ġê¯ĳê¯ĭ": 254,
      "ê¯Ľê¯ĳê¯Ĵ": 255,
      "ê¯¤,": 256,
      "ê¯Ķê¯Ľ": 257,
      "ê¯Ŀê¯Ħ": 258,
      "ê¯Ľê¯Ĩ": 259,
      "Ġê¯ĥê¯ģ": 260,
      "ê¯¢ê¯Ĺ": 261,
      "ê¯İê¯ĭ": 262,
      "ê¯ľê¯Ĺ": 263,
      "Ġê¯²": 264,
      "ê¯Ķê¯Ŀê¯ĥ": 265,
      "ê¯ģê¯Ł": 266,
      "ê¯Ĵê¯ħ": 267,
      "ê¯ıê¯Ī": 268,
      "Ġê¯ĥê¯į": 269,
      "Ġê¯ĥê¯Ĭ": 270,
      "ê¯¡ê¯ĥ": 271,
      "ê¯ĸê¯Ĺ": 272,
      "ê¯¢ê¯Ĳ": 273,
      "ê¯Ĺê¯ķê¯ħ": 274,
      "ê¯¨ê¯«": 275,
      "ê¯Ķê¯ķê¯ħ": 276,
      "ê¯ģê¯Ģ": 277,
      "ê¯ıê¯į": 278,
      "ê¯Łê¯Ī": 279,
      "ê¯Łê¯ĸê¯Ķ": 280,
      "ê¯łê¯ŀ": 281,
      "ê¯İê¯Ķ": 282,
      "ê¯Ķê¯Ľê¯Ħ": 283,
      "ê¯ıê¯ĸê¯Ķ": 284,
      "ê¯Łê¯ķê¯Ĺ": 285,
      "ê¯Ľê¯ħ": 286,
      "Ġê¯ĳê¯Ĺê¯Ĵ": 287,
      "ê¯¢ê¯Ł": 288,
      "Ġê¯Ĩê¯łê¯Ĥ": 289,
      "ê¯İê¯Ł": 290,
      "ê¯Ĭê¯ĸê¯ķ": 291,
      "Ġê¯ıê¯ķ": 292,
      "ê¯Ķê¯Ĵê¯ģ": 293,
      "ê¯ħê¯Ķ": 294,
      "ê¯ıê¯Ĩ": 295,
      "ê¯¡ê¯Ī": 296,
      "ê¯łê¯Ģ": 297,
      "ê¯ĸê¯Ĵ": 298,
      "Ġê¯Ģê¯Į": 299,
      "ê¯İê¯ģ": 300,
      "ê¯ŀê¯ĩ": 301,
      "Ġê¯ĳê¯ĥê¯Ĺ": 302,
      "ê¯ľê¯Ĥê¯Ĵ": 303,
      "ê¯ıê¯ĩê¯Ķ": 304,
      "ê¯Ķê¯Ĳ": 305,
      "ê¯Ĵê¯łê¯Ĥ": 306,
      "ê¯Ľê¯Ĥ": 307,
      "Ġê¯įê¯Ķ": 308,
      "ê¯¡ê¯ĸ": 309,
      "ê¯¢ê¯Ĵ": 310,
      "ê¯ıê¯Ĺê¯ħ": 311,
      "ê¯ŀê¯Ĩ": 312,
      "Ġê¯ıê¯ĥ": 313,
      "ê¯ıê¯ķê¯Ĵ": 314,
      "Ġê¯ĥê¯ħê¯Ŀê¯ģ": 315,
      "ê¯łê¯Ĩê¯Ķ": 316,
      "ê¯³": 317,
      "ê¯Ķê¯Ģ": 318,
      "ê¯ģê¯Ħ": 319,
      "Ġê¯ĳê¯Ķ": 320,
      "ê¯ıê¯ķê¯ħ": 321,
      "ê¯Łê¯Ĭ": 322,
      "ê¯©-": 323,
      "ê¯Ľê¯Ī": 324,
      "ê¯ĥê¯Ĺ": 325,
      "ê¯ĳê¯Ī": 326,
      "Ġê¯Ĩê¯łê¯ĩ": 327,
      "ê¯īê¯ģ": 328,
      "ê¯Ĳê¯Ŀ": 329,
      "ê¯Ŀê¯ķê¯Ĺ": 330,
      "Ġê¯ĳê¯ĥê¯ħ": 331,
      "ê¯łê¯Ĥê¯Ĵ": 332,
      "ê¯Ŀê¯ĥê¯Ĵ": 333,
      "ê¯¥,": 334,
      "ê¯Ĺê¯Ł": 335,
      "ê¯¨ê¯¨": 336,
      "ê¯ħê¯Ĺ": 337,
      "ê¯ģê¯ģ": 338,
      "ê¯ıê¯Ģ": 339,
      "ê¯ĥê¯į": 340,
      "ê¯ĳê¯ģ": 341,
      "ê¯ĳê¯ĥ": 342,
      "ê¯ĩê¯Ĵ": 343,
      "ê¯¡ê¯Ł": 344,
      "ê¯¡ê¯ķê¯Ĺ": 345,
      "ê¯Ģê¯ĥ": 346,
      "Ġê¯ĥê¯ħê¯Ŀ": 347,
      "ê¯°ê¯°": 348,
      "ê¯¥-": 349,
      "ê¯Ĺê¯Ķ": 350,
      "ê¯Ĺê¯ģ": 351,
      "ê¯Ķê¯ĩ": 352,
      "ê¯Ķê¯Ľê¯Ģ": 353,
      "ê¯Ĵê¯ģ": 354,
      "ê¯Ŀê¯ĩ": 355,
      "ê¯Ŀê¯Ĳ": 356,
      "ê¯Ŀê¯Ĭ": 357,
      "ê¯©ê¯«": 358,
      "ê¯Ľê¯ł": 359,
      "ê¯ĳê¯ī": 360,
      "ê¯Ģê¯Ķ": 361,
      "ê¯ĸê¯ħ": 362,
      "Ġê¯Ģê¯ħ": 363,
      "Ġê¯ħê¯į": 364,
      "Ġê¯Ĳê¯Ł": 365,
      "ê¯¡ê¯īê¯ģ": 366,
      "ê¯Ľê¯Ħê¯ħ": 367,
      "ê¯¡ê¯ķê¯ģ": 368,
      "ê¯Ŀê¯Ĵê¯ħ": 369,
      "Ġê¯²ê¯": 370,
      "Ġê¯±": 371,
      "ê¯Ķê¯Ľê¯ĩ": 372,
      "ê¯ķê¯ĩ": 373,
      "ê¯Ŀê¯į": 374,
      "ê¯ĳê¯ĩ": 375,
      "Ġê¯ģê¯Ħ": 376,
      "ê¯¡ê¯ħ": 377,
      "ê¯Ģê¯ħ": 378,
      "Ġê¯Īê¯Ľê¯ĩ": 379,
      "Ġê¯Īê¯Łê¯Ĥ": 380,
      "Ġê¯Īê¯Łê¯ķ": 381,
      "ê¯ıê¯Ĺê¯Ĵ": 382,
      "ê¯ıê¯Ķê¯ķ": 383,
      "ê¯Ŀê¯ķê¯ģ": 384,
      "Ġê¯ĳê¯ĥê¯ģ": 385,
      "ê¯ıê¯ķê¯ģ": 386,
      "ê¯ıê¯Łê¯Ł": 387,
      "ê¯Ľê¯Ģê¯Ĺ": 388,
      "ê¯Łê¯ģê¯ĩê¯Ĵ": 389,
      "Ġê¯Ĩê¯łê¯Ħ": 390,
      "Ġê¯Ĩê¯łê¯ŀ": 391,
      "ĠĠčĊ": 392,
      "Ġê¯¢": 393,
      "ê¯Ĺê¯Ģ": 394,
      "ê¯Ķê¯ĸ": 395,
      "ê¯Ķê¯Ľê¯Ħê¯Ĺ": 396,
      "ê¯ħê¯Ģ": 397,
      "ê¯ķê¯Ľ": 398,
      "Ġê¯ĳê¯Ĵ": 399,
      "Ġê¯ĳê¯Ħ": 400,
      "Ġê¯ĳê¯Łê¯ķ": 401,
      "ê¯Ĵê¯Ĺ": 402,
      "ê¯ĥê¯ģ": 403,
      "ê¯ĥê¯ĥ": 404,
      "ê¯¡ê¯ĩ": 405,
      "ê¯¡ê¯Ĭ": 406,
      "ê¯Ģê¯Ĥ": 407,
      "ê¯ĸê¯Ł": 408,
      "Ġê¯Ģê¯Ĥ": 409,
      "ê¯Īê¯Ķ": 410,
      "ê¯įê¯Łê¯Ĺ": 411,
      "ê¯ĳê¯Ĺê¯Ĵ": 412,
      "ê¯İê¯ħ": 413,
      "ê¯İê¯Ħ": 414,
      "Ġê¯Ĳê¯Ķ": 415,
      "ê¯ŀê¯ģ": 416,
      "ê¯Ĳê¯ķ": 417,
      "ê¯ıê¯Ķê¯ģ": 418,
      "ê¯Łê¯Ĺê¯Ĵ": 419,
      "ê¯Łê¯ħê¯ħ": 420,
      "ê¯Łê¯ħê¯ģ": 421,
      "ê¯Łê¯ħê¯Ĵ": 422,
      "Ġê¯īê¯Ŀê¯Ĺ": 423,
      "ê¯Ŀê¯ħê¯ģ": 424,
      "ê¯Łê¯Ĥê¯Ľê¯ĳ": 425,
      "Ġê¯ħê¯Ŀê¯ķê¯Ŀ": 426,
      "Ġê¯Ĳê¯ĸê¯Ł": 427,
      "Ġê¯³": 428,
      "ê¯Ķê¯ĥ": 429,
      "ê¯ħê¯ģ": 430,
      "Ġê¯ĳê¯Ģ": 431,
      "Ġê¯ĳê¯Ĳê¯ķ": 432,
      "ê¯Ŀê¯ĸê¯Ķ": 433,
      "ê¯ıê¯ł": 434,
      "ê¯Ľê¯Ĭ": 435,
      "Ġê¯ĥê¯Ł": 436,
      "ê¯ĥê¯Ķ": 437,
      "ê¯ĥê¯Ī": 438,
      "ê¯ĳê¯į": 439,
      "ê¯ĩê¯ħ": 440,
      "ê¯ĩê¯¡": 441,
      "ê¯łê¯Ī": 442,
      "ê¯ĸê¯ķê¯ħ": 443,
      "ê¯İê¯Ĵ": 444,
      "ê¯İê¯į": 445,
      "ê¯ľê¯Ĵ": 446,
      "ê¯ıê¯ħê¯Ĺ": 447,
      "ê¯ŀê¯ŀ": 448,
      "ê¯ıê¯Ķê¯Ĺ": 449,
      "Ġê¯ıê¯Ħ": 450,
      "Ġê¯ıê¯Łê¯ĩ": 451,
      "ê¯Łê¯ħê¯Ķ": 452,
      "Ġê¯īê¯Ŀê¯ķ": 453,
      "Ġê¯Ĺê¯Ĵ": 454,
      "ê¯¡ê¯Ĺê¯Ĵ": 455,
      "ê¯Ľê¯Ħê¯ģ": 456,
      "ê¯Ľê¯Ģê¯ģ": 457,
      "ê¯Łê¯Ĥê¯Ĵ": 458,
      "ê¯ľê¯Ĥê¯Ľê¯ĳ": 459,
      "ê¯Ĺê¯ħê¯Ģ": 460,
      "Ġê¯Ĩê¯łê¯Ī": 461,
      "ê¯ıê¯Ķê¯Ĵê¯Ĺ": 462,
      "Ġê¯Ģê¯Ķê¯Ŀê¯ķ": 463,
      "ê¯¤-": 464,
      "ê¯Ĺê¯Ĺ": 465,
      "ê¯¦-": 466,
      "ê¯Ķê¯ł": 467,
      "ê¯ħê¯ħ": 468,
      "ê¯ħê¯łê¯ĩ": 469,
      "ê¯ģê¯ł": 470,
      "Ġê¯ĳê¯ĩ": 471,
      "ê¯Ĵê¯łê¯Ħ": 472,
      "ê¯Ŀê¯Ī": 473,
      "ê¯Ŀê¯Ĥ": 474,
      "ê¯ıê¯Ŀ": 475,
      "ê¯ıê¯ŀê¯ĩ": 476,
      "ê¯Ľê¯ĸ": 477,
      "Ġê¯ĥê¯Ģ": 478,
      "Ġê¯ĥê¯ī": 479,
      "Ġê¯ĥê¯Ĳ": 480,
      "ê¯ĥê¯Ĩ": 481,
      "ê¯ĥê¯Ľê¯ĩ": 482,
      "ê¯ĳê¯Ŀ": 483,
      "Ġê¯įê¯Ľê¯Ĩ": 484,
      "ê¯Ģê¯Ł": 485,
      "ê¯Ģê¯Łê¯Ĺ": 486,
      "ê¯Ħê¯ŀ": 487,
      "ê¯¢ê¯Łê¯ģê¯ĩê¯Ĵ": 488,
      "Ġê¯Īê¯ľê¯Ĥ": 489,
      "Ġê¯Īê¯ľê¯Ĥê¯Ĵ": 490,
      "ê¯İê¯Ī": 491,
      "ê¯İê¯Łê¯Ĺ": 492,
      "ê¯İê¯Łê¯ģ": 493,
      "ê¯ľê¯Ħ": 494,
      "Ġê¯Ĭê¯Ķ": 495,
      "Ġê¯Ĭê¯Ŀê¯ĸ": 496,
      "Ġê¯Ĭê¯ķê¯Ľ": 497,
      "ê¯ıê¯ħê¯ĥê¯Ľ": 498,
      "ê¯ªê¯«": 499,
      "Ġê¯Ĳê¯ķ": 500,
      "ê¯ıê¯Ĺê¯Ĺ": 501,
      "ê¯ıê¯Ĺê¯ķ": 502,
      "ê¯ŀê¯ħ": 503,
      "ê¯ıê¯Ķê¯ħ": 504,
      "ê¯ıê¯Ķê¯ķê¯ħ": 505,
      "ê¯Ŀê¯ķê¯Ĵ": 506,
      "Ġê¯ıê¯Ł": 507,
      "Ġê¯ıê¯Ŀê¯Ħ": 508,
      "ê¯Łê¯ħê¯Ĺ": 509,
      "Ġê¯ĳê¯ĥê¯Ī": 510,
      "ê¯Ľê¯ĩê¯ħ": 511,
      "Ġê¯īê¯Ŀê¯ĥ": 512,
      "ê¯łê¯ĩê¯ħ": 513,
      "ê¯¡ê¯īê¯Ĵ": 514,
      "Ġê¯ķê¯ķ": 515,
      "ê¯ķê¯Ĺê¯Ĵ": 516,
      "ê¯łê¯Ĥê¯ģ": 517,
      "ê¯ĸê¯Ķê¯Ľê¯Ģ": 518,
      "ê¯Łê¯Ĥê¯Ĺ": 519,
      "ê¯Ľê¯ģê¯Ł": 520,
      "ê¯Ľê¯ģê¯ĩ": 521,
      "Ġê¯ĥê¯ĩê¯Ŀ": 522,
      "Ġê¯İê¯ĥ": 523,
      "Ġê¯İê¯łê¯Ĥ": 524,
      "ê¯ħê¯ķê¯Ĵ": 525,
      "ê¯łê¯Ĩê¯ķ": 526,
      "ê¯ıê¯ĸê¯Ĵ": 527,
      "Ġê¯ħê¯Ŀê¯ķê¯Ķ": 528,
      "ê¯Ķê¯Ľê¯Ħê¯ħ": 529,
      "ê¯Ľê¯Ĥê¯Ľê¯ĳ": 530,
      "ê¯ŀê¯Ĩê¯Ķê¯Ľê¯Ģ": 531,
      "ê¯³ê¯°": 532,
      "ê¯²": 533,
      "ê¯µ": 534,
      "Ġê¯µ": 535,
      "Ġê¯¶": 536,
      "Ġê¯Ł": 537,
      "ê¯¥ê¯Ń": 538,
      "ê¯Ĺê¯Ľ": 539,
      "ê¯Ĺê¯ĥê¯Ľ": 540,
      "ê¯¨,": 541,
      "ê¯Ķê¯Ŀê¯ħ": 542,
      "ê¯Ķê¯Ŀê¯Ĵê¯ħ": 543,
      "ê¯ħê¯ł": 544,
      "ê¯ħê¯ķê¯ħ": 545,
      "ê¯ħê¯Ķê¯ģ": 546,
      "ê¯Ĵê¯Ŀ": 547,
      "ê¯Ĵê¯ľ": 548,
      "ê¯Ĵê¯łê¯Ĩê¯Ķ": 549,
      "ê¯ıê¯Ħ": 550,
      "ê¯ıê¯łê¯ģ": 551,
      "ê¯©,": 552,
      "ê¯Ľê¯Ľ": 553,
      "ê¯Ľê¯İ": 554,
      "Ġê¯ĥê¯Ħ": 555,
      "ê¯ĥê¯Ł": 556,
      "ê¯ĥê¯ĩ": 557,
      "ê¯ĥê¯Ħ": 558,
      "ê¯ĥê¯ıê¯ħ": 559,
      "ê¯ĥê¯Ĭ": 560,
      "ê¯ĳê¯Ĳ": 561,
      "ê¯ĩê¯ķ": 562,
      "Ġê¯ģê¯Łê¯Ĺ": 563,
      "ê¯¡ê¯Ģ": 564,
      "ê¯¡ê¯į": 565,
      "ê¯¡ê¯ķê¯ħ": 566,
      "ê¯ĸê¯Ģ": 567,
      "Ġê¯ĩê¯ħ": 568,
      "Ġê¯Ģê¯Ł": 569,
      "ê¯Īê¯ľ": 570,
      "ê¯Īê¯łê¯Ĩ": 571,
      "ê¯Īê¯ľê¯ģ": 572,
      "Ġê¯Įê¯Ķ": 573,
      "ê¯¢ê¯Ķ": 574,
      "ê¯¢ê¯ķ": 575,
      "Ġê¯ħê¯Ŀê¯Ĺ": 576,
      "ê¯įê¯ľê¯Ĥ": 577,
      "ê¯įê¯Łê¯Ĵ": 578,
      "ê¯İê¯ķê¯ħ": 579,
      "ê¯ľê¯ħ": 580,
      "ê¯ľê¯ĩ": 581,
      "ê¯ľê¯ĸ": 582,
      "Ġê¯Ĭê¯Ŀê¯ĥ": 583,
      "Ġê¯Ĳê¯ħ": 584,
      "ê¯ıê¯Ĺê¯ħê¯ķ": 585,
      "ê¯ıê¯Ķê¯Ŀê¯ĥ": 586,
      "ê¯ıê¯Ķê¯Ľê¯ŀ": 587,
      "ê¯Ŀê¯ķê¯ħ": 588,
      "ê¯Ĭê¯ĸê¯Ķ": 589,
      "Ġê¯ıê¯ĩ": 590,
      "ê¯Łê¯Ĺê¯Ĺ": 591,
      "ê¯Łê¯Ĺê¯ħ": 592,
      "ê¯Łê¯ħê¯ķê¯ħ": 593,
      "ê¯Łê¯ħê¯Ķê¯Ĵ": 594,
      "ê¯Łê¯ħê¯Ķê¯ģ": 595,
      "Ġê¯ĳê¯ĥê¯Ĵ": 596,
      "ê¯Ŀê¯Ĺê¯ģ": 597,
      "ê¯Ŀê¯Ĺê¯Ĵ": 598,
      "Ġê¯Ĺê¯ģ": 599,
      "ê¯Ŀê¯ħê¯ĥê¯Ľ": 600,
      "ê¯Ĺê¯ķê¯ģ": 601,
      "ê¯Ĺê¯ķê¯Ĵ": 602,
      "Ġê¯ĳê¯Ŀê¯ĩ": 603,
      "ê¯ļê¯Ķ": 604,
      "ê¯Ķê¯ģê¯Ł": 605,
      "ê¯ıê¯ĩê¯ķ": 606,
      "ê¯Ķê¯Ľê¯ĳê¯Ĵ": 607,
      "ê¯ŀê¯Ħê¯Ĺ": 608,
      "ê¯Łê¯Ĵê¯Ĺê¯ķ": 609,
      "ê¯ıê¯Ķê¯Ĵê¯ħ": 610,
      "ê¯ıê¯Ķê¯Ĵê¯ģ": 611,
      "Ġê¯ĳê¯īê¯Ŀê¯ķ": 612,
      "Ġê¯Ŀê¯ĩ": 613,
      "Ġê¯Ŀê¯Į": 614,
      "Ġê¯Ĳê¯ĸê¯Ĺ": 615,
      "Ġê¯Ĳê¯ĸê¯ħ": 616,
      "Ġê¯ĥê¯Ĳê¯Ŀê¯ģ": 617,
      "Ġê¯´": 618,
      "Ġê¯·": 619,
      "Ġê¯¸": 620,
      "Ġê¯Ľ": 621,
      "ê¯¥ê¯¥": 622,
      "ê¯Ĺê¯ĥ": 623,
      "ê¯Ĺê¯Į": 624,
      "ê¯¨ê¯Ń": 625,
      "ê¯Ķê¯Ł": 626,
      "ê¯Ķê¯Ŀê¯Ĺ": 627,
      "ê¯Ķê¯ļ": 628,
      "ê¯ħê¯Ī": 629,
      "ê¯ħê¯Ķê¯Ĵ": 630,
      "ê¯ħê¯ķê¯Ģ": 631,
      "ê¯ģê¯ĭ": 632,
      "ê¯ķê¯Ķ": 633,
      "ê¯ķê¯Ŀ": 634,
      "ê¯ķê¯Ĥ": 635,
      "ê¯ķê¯Ľê¯ģ": 636,
      "Ġê¯ĳê¯Ĩ": 637,
      "Ġê¯ĳê¯ŀ": 638,
      "ê¯Ĵê¯Ī": 639,
      "ê¯Ĵê¯ŀ": 640,
      "ê¯Ĵê¯Ĺê¯ķê¯ħ": 641,
      "ê¯ıê¯ĳ": 642,
      "ê¯ıê¯Łê¯ħ": 643,
      "ê¯ıê¯ļ": 644,
      "ê¯ıê¯łê¯ħ": 645,
      "ê¯Łê¯ľ": 646,
      "ê¯Łê¯ī": 647,
      "ê¯Łê¯ķê¯ħ": 648,
      "ê¯Łê¯łê¯ģ": 649,
      "ê¯Ľê¯Ł": 650,
      "ê¯Ľê¯ĥ": 651,
      "ê¯Ľê¯ĳê¯Ĺ": 652,
      "ê¯Ľê¯ħê¯ķ": 653,
      "Ġê¯ĥê¯ĳ": 654,
      "ê¯ĥê¯Ĵ": 655,
      "ê¯ĳê¯ħ": 656,
      "ê¯ĳê¯Ħ": 657,
      "ê¯ĳê¯ŀ": 658,
      "Ġê¯įê¯Į": 659,
      "Ġê¯įê¯Łê¯Ł": 660,
      "Ġê¯įê¯Łê¯ĸ": 661,
      "Ġê¯ģê¯Ŀ": 662,
      "Ġê¯ģê¯Łê¯Ĭ": 663,
      "ê¯¡ê¯Ĥ": 664,
      "ê¯¡ê¯Ĩ": 665,
      "ê¯¡ê¯ĥê¯Ľ": 666,
      "ê¯Įê¯Ķ": 667,
      "ê¯łê¯ķ": 668,
      "ê¯łê¯ħê¯ķ": 669,
      "ê¯ĸê¯ł": 670,
      "ê¯ĸê¯Ķê¯Ĵ": 671,
      "Ġê¯ĩê¯Ķ": 672,
      "Ġê¯ĩê¯Ľ": 673,
      "Ġê¯Ģê¯Łê¯Ł": 674,
      "Ġê¯Ĥê¯Ŀê¯ķ": 675,
      "Ġê¯Ĥê¯Ŀê¯Ĳ": 676,
      "ê¯Īê¯Łê¯Ĺ": 677,
      "ê¯Ĥê¯Ķ": 678,
      "ê¯Ĥê¯ŀ": 679,
      "ê¯Ħê¯ģ": 680,
      "ê¯¢ê¯ģ": 681,
      "ê¯¢ê¯ĳ": 682,
      "ê¯¢ê¯ĩ": 683,
      "ê¯¢ê¯Ģ": 684,
      "ê¯¢ê¯Ī": 685,
      "Ġê¯Īê¯ĸ": 686,
      "Ġê¯Īê¯Łê¯Ĺ": 687,
      "Ġê¯Īê¯Ķê¯Ĺ": 688,
      "Ġê¯Īê¯Łê¯ĸê¯Ķ": 689,
      "Ġê¯ħê¯Ħ": 690,
      "ê¯İê¯ĳ": 691,
      "ê¯İê¯Į": 692,
      "ê¯İê¯ĸ": 693,
      "ê¯İê¯ĸê¯Ķ": 694,
      "ê¯İê¯Ķê¯ķ": 695,
      "ê¯ľê¯ŀ": 696,
      "ê¯ıê¯ħê¯ģ": 697,
      "ê¯ıê¯ħê¯Ĵ": 698,
      "ê¯īê¯ħ": 699,
      "ê¯īê¯Ĵ": 700,
      "ê¯ıê¯Ĺê¯ģ": 701,
      "ê¯ıê¯Ĺê¯Ł": 702,
      "ê¯ıê¯Ĺê¯ł": 703,
      "ê¯ŀê¯Ģ": 704,
      "ê¯ŀê¯Ī": 705,
      "ê¯Ĳê¯ĩ": 706,
      "ê¯ıê¯Ķê¯Ľê¯ĳ": 707,
      "ê¯Ĭê¯ģ": 708,
      "Ġê¯ıê¯Ĺ": 709,
      "Ġê¯ıê¯Ģ": 710,
      "Ġê¯ıê¯ļ": 711,
      "ê¯Łê¯Ĺê¯ģ": 712,
      "Ġê¯ĳê¯ĥê¯ĩ": 713,
      "Ġê¯ĳê¯ĥê¯łê¯ĩ": 714,
      "ê¯Ľê¯ĳê¯ķê¯ħ": 715,
      "ê¯Ľê¯ĳê¯Ŀê¯Ĺ": 716,
      "ê¯ıê¯ķê¯Ģ": 717,
      "ê¯Ľê¯ĩê¯Ĺ": 718,
      "ê¯Ķê¯Ĵê¯ħ": 719,
      "Ġê¯īê¯Ķ": 720,
      "Ġê¯īê¯Ŀê¯ĸ": 721,
      "Ġê¯īê¯Ŀê¯į": 722,
      "ê¯ıê¯Ĵê¯ģ": 723,
      "Ġê¯Ĺê¯ħ": 724,
      "Ġê¯Ĺê¯Ķê¯Ģ": 725,
      "ê¯łê¯ĩê¯ķ": 726,
      "ê¯¡ê¯Ĺê¯Ĺ": 727,
      "ê¯Ľê¯Ħê¯Ĵ": 728,
      "Ġê¯ļê¯Ĥ": 729,
      "ê¯Ŀê¯ħê¯ķ": 730,
      "ê¯Ľê¯Ģê¯ħ": 731,
      "ê¯ĸê¯Ķê¯ħ": 732,
      "ê¯Łê¯ķê¯Ĵ": 733,
      "ê¯Łê¯ģê¯Ł": 734,
      "Ġê¯ĥê¯Ķê¯Ŀ": 735,
      "Ġê¯İê¯ķ": 736,
      "Ġê¯İê¯łê¯Ĩ": 737,
      "ê¯Ķê¯Ľê¯ĳê¯ħ": 738,
      "Ġê¯Ĩê¯łê¯Ģ": 739,
      "ê¯Łê¯Ĵê¯Ĺ": 740,
      "ê¯Łê¯ĸê¯Ĺ": 741,
      "ê¯Łê¯ĸê¯Ķê¯Ĵ": 742,
      "ê¯ıê¯ĥê¯Ĺ": 743,
      "ê¯ıê¯ĥê¯Ľ": 744,
      "Ġê¯įê¯Łê¯Ĺê¯Ľê¯ĩ": 745,
      "Ġê¯ĥê¯Īê¯ľ": 746,
      "ê¯ıê¯Ĳê¯ģ": 747,
      "Ġê¯ĥê¯ĩê¯Ŀê¯Ĺê¯ģ": 748,
      "ê¯ĥê¯ħê¯Ŀê¯ĸ": 749,
      "ê¯Ŀê¯Ħê¯Ķ": 750,
      "ê¯ıê¯Īê¯łê¯Ĥ": 751,
      "Ġê¯²ê¯´": 752,
      "Ġê¯¢ê¯Łê¯ģê¯ĩê¯Ĵ": 753,
      "Ġê¯ıê¯Łê¯Ĳ": 754,
      "Ġê¯İê¯łê¯Ĥê¯Ľê¯Ģ": 755,
      "ê¯Ĺê¯ĥê¯Ľê¯ł": 756,
      "±ê¯°ê¯°": 757,
      "ê¯´": 758,
      "ê¯¶": 759,
      "ê¯·": 760,
      "ê¯Ļ": 761,
      "ê¯±ê¯°ê¯°": 762,
      "Ġê¯Ļ": 763,
      "ê¯£-": 764,
      "ê¯£ê¯¤": 765,
      "ê¯Ķê¯Ķ": 766,
      "ê¯Ķê¯Ħ": 767,
      "ê¯Ķê¯Ŀê¯ķ": 768,
      "ê¯Ķê¯ķê¯Ģ": 769,
      "ê¯Ķê¯Ŀê¯Ĵ": 770,
      "ê¯Ķê¯Ľê¯ŀ": 771,
      "ê¯Ķê¯Ŀê¯į": 772,
      "ê¯ħê¯ĸ": 773,
      "ê¯ħê¯į": 774,
      "ê¯ģê¯ħ": 775,
      "ê¯ģê¯ķ": 776,
      "ê¯ģê¯ĥ": 777,
      "ê¯ģê¯Ĩ": 778,
      "ê¯ģê¯Łê¯ģ": 779,
      "ê¯ķê¯Ł": 780,
      "ê¯ķê¯ĸ": 781,
      "Ġê¯ĳê¯Į": 782,
      "Ġê¯ĳê¯ıê¯Ĺ": 783,
      "Ġê¯ĳê¯Ĭ": 784,
      "ê¯Ĵê¯Ĺê¯ķ": 785,
      "ê¯Ĵê¯łê¯Ĩ": 786,
      "ê¯Ĵê¯łê¯ħ": 787,
      "ê¯Ĵê¯ľê¯Ĺ": 788,
      "ê¯Ĵê¯łê¯ŀ": 789,
      "ê¯Ŀê¯ł": 790,
      "ê¯ıê¯ŀ": 791,
      "ê¯ıê¯Ĭ": 792,
      "ê¯ıê¯Ŀê¯Ĺ": 793,
      "ê¯ıê¯ľê¯Ĵ": 794,
      "ê¯Łê¯ĥ": 795,
      "ê¯Łê¯Ģ": 796,
      "ê¯Łê¯ľê¯Ĥ": 797,
      "ê¯Łê¯Ķê¯ģ": 798,
      "ê¯Ńê¯¨": 799,
      "ê¯Ľê¯ı": 800,
      "Ġê¯ĥê¯Ĺ": 801,
      "Ġê¯ĥê¯Ĵ": 802,
      "Ġê¯ĥê¯Ŀ": 803,
      "Ġê¯ĥê¯ľê¯ĩ": 804,
      "ê¯ĥê¯ķ": 805,
      "ê¯ĥê¯ī": 806,
      "ê¯ĳê¯Į": 807,
      "ê¯ĳê¯Ĥ": 808,
      "ê¯ĳê¯Ĩ": 809,
      "ê¯ĳê¯ĭ": 810,
      "ê¯ĩê¯ģ": 811,
      "ê¯ĩê¯ķê¯ħ": 812,
      "Ġê¯įê¯Łê¯ħ": 813,
      "Ġê¯įê¯Łê¯Ĥ": 814,
      "Ġê¯įê¯ľê¯Ĥ": 815,
      "Ġê¯įê¯ľê¯Ĥê¯Ĵ": 816,
      "Ġê¯įê¯Łê¯Ĭ": 817,
      "Ġê¯ģê¯ħ": 818,
      "Ġê¯ģê¯ķ": 819,
      "Ġê¯ģê¯Ľ": 820,
      "Ġê¯ģê¯ĩ": 821,
      "Ġê¯ģê¯Ŀê¯ķ": 822,
      "Ġê¯ģê¯Ŀê¯ħ": 823,
      "ê¯¡ê¯ĳê¯ŀ": 824,
      "ê¯Ģê¯Ĵ": 825,
      "ê¯Ģê¯ľ": 826,
      "ê¯łê¯Ķ": 827,
      "ê¯łê¯Ĳ": 828,
      "ê¯ĸê¯Ī": 829,
      "ê¯ĸê¯ķê¯Ĺ": 830,
      "Ġê¯ĩê¯ģ": 831,
      "Ġê¯ĩê¯Ĵ": 832,
      "Ġê¯Ģê¯Ĺ": 833,
      "Ġê¯Ĥê¯Ł": 834,
      "ê¯Īê¯łê¯Ĥ": 835,
      "ê¯Īê¯Łê¯ĸ": 836,
      "ê¯Īê¯ľê¯Ĺ": 837,
      "ê¯Īê¯Ľê¯ĩê¯ħ": 838,
      "ê¯Ĥê¯ķ": 839,
      "ê¯Ħê¯ģê¯Ł": 840,
      "ê¯¢ê¯Ķê¯Ĵ": 841,
      "ê¯¢ê¯ļ": 842,
      "Ġê¯Īê¯Ķê¯ģ": 843,
      "Ġê¯Īê¯Łê¯Ĵ": 844,
      "Ġê¯Īê¯Łê¯ķê¯Ĺ": 845,
      "Ġê¯ħê¯ĩ": 846,
      "Ġê¯ħê¯Ŀê¯ħ": 847,
      "Ġê¯ħê¯Ŀê¯ĥ": 848,
      "Ġê¯ħê¯Ŀê¯Ĵ": 849,
      "ê¯įê¯Łê¯ħ": 850,
      "ê¯įê¯Łê¯Ĥ": 851,
      "Ġê¯Ĩê¯Ķ": 852,
      "Ġê¯Ĩê¯ŀ": 853,
      "Ġê¯Ĩê¯ŀê¯ĩ": 854,
      "Ġê¯Ħê¯Ĥ": 855,
      "Ġê¯Ħê¯Ŀê¯Ĺ": 856,
      "ê¯İê¯¢": 857,
      "ê¯İê¯ķê¯Ĺ": 858,
      "ê¯İê¯Ĺê¯ķ": 859,
      "ê¯İê¯Ķê¯Ľê¯ĳ": 860,
      "ê¯İê¯ħê¯ķ": 861,
      "ê¯İê¯Ķê¯Ĵê¯Ĺ": 862,
      "ê¯ľê¯į": 863,
      "ê¯ľê¯ļ": 864,
      "ê¯ľê¯Ĺê¯Ĵ": 865,
      "Ġê¯Ĭê¯ķ": 866,
      "Ġê¯Ĭê¯Ľê¯Ħê¯Ĺ": 867,
      "Ġê¯Ĭê¯Ŀê¯Ĵê¯ħ": 868,
      "Ġê¯Ĭê¯Ľê¯Ģê¯Ĺ": 869,
      "ê¯ıê¯ħê¯ħ": 870,
      "ê¯ıê¯ħê¯ķ": 871,
      "ê¯ıê¯ħê¯Ģ": 872,
      "ê¯ıê¯ħê¯ķê¯Ĺ": 873,
      "ê¯īê¯Ĺ": 874,
      "ê¯īê¯Ľ": 875,
      "ê¯īê¯Ģ": 876,
      "ê¯īê¯Ľê¯ĳ": 877,
      "ê¯īê¯Ŀê¯Ĺ": 878,
      "Ġê¯Ĳê¯Ŀ": 879,
      "Ġê¯Ĳê¯ĸê¯ķ": 880,
      "Ġê¯Ĳê¯ĸê¯Ķê¯ħ": 881,
      "ê¯ıê¯Ĺê¯Ķ": 882,
      "ê¯ıê¯Ĺê¯ĩ": 883,
      "ê¯ıê¯Ĺê¯ķê¯Ĺ": 884,
      "ê¯ıê¯Ĺê¯ĩê¯Ĵ": 885,
      "ê¯ŀê¯Ĥ": 886,
      "ê¯ŀê¯Ĭ": 887,
      "ê¯ŀê¯Ĳê¯Ŀ": 888,
      "ê¯ŀê¯Ģê¯ħ": 889,
      "ê¯Ĳê¯Ł": 890,
      "ê¯Ĳê¯ĸ": 891,
      "ê¯Ĳê¯Ŀê¯Ĺ": 892,
      "ê¯Ĳê¯ĸê¯Ł": 893,
      "ê¯ıê¯Ķê¯ŀ": 894,
      "ê¯ıê¯Ķê¯ķê¯Ĺ": 895,
      "ê¯Ŀê¯ķê¯Łê¯Ĺ": 896,
      "Ġê¯ıê¯Į": 897,
      "Ġê¯ıê¯Ĭ": 898,
      "Ġê¯ıê¯Ŀê¯Ĳ": 899,
      "ê¯Łê¯Ĺê¯Ł": 900,
      "ê¯Łê¯ħê¯Ĭ": 901,
      "ê¯Łê¯ħê¯ĸê¯ķ": 902,
      "ê¯Łê¯ħê¯Ķê¯Ŀê¯ĥ": 903,
      "Ġê¯ĳê¯ĥê¯Ķ": 904,
      "Ġê¯ĳê¯ĥê¯Ŀ": 905,
      "Ġê¯ĳê¯ĥê¯Ĺê¯Ĵ": 906,
      "ê¯ĭê¯Ķ": 907,
      "ê¯Ľê¯ĳê¯Ŀê¯ĥ": 908,
      "ê¯Ľê¯ĩê¯Ķ": 909,
      "ê¯Ŀê¯Ĺê¯Ģ": 910,
      "ê¯Ŀê¯Ĺê¯ķê¯Ĺ": 911,
      "ê¯Ķê¯Ĵê¯Ł": 912,
      "ê¯Ķê¯Ĵê¯Ģ": 913,
      "Ġê¯īê¯Ŀê¯Ī": 914,
      "ê¯ıê¯Ĵê¯Ĺê¯ķê¯ħ": 915,
      "Ġê¯Ĺê¯Ł": 916,
      "Ġê¯Ĺê¯Ľ": 917,
      "Ġê¯Ĺê¯ĥê¯Ľê¯ĩ": 918,
      "ê¯łê¯ĩê¯Ł": 919,
      "ê¯¡ê¯īê¯ĳ": 920,
      "ê¯¡ê¯īê¯ķê¯ħ": 921,
      "ê¯ıê¯Łê¯ĩ": 922,
      "ê¯ıê¯Łê¯ĸ": 923,
      "ê¯¡ê¯Ĺê¯ħ": 924,
      "ê¯¡ê¯Ĺê¯ģ": 925,
      "ê¯¡ê¯Ĺê¯ķ": 926,
      "Ġê¯ķê¯ĩ": 927,
      "ê¯ıê¯ģê¯ħ": 928,
      "ê¯Ŀê¯ħê¯Ĺ": 929,
      "ê¯łê¯Ĥê¯Ľê¯ĳê¯Ĵ": 930,
      "ê¯Ŀê¯ĥê¯ķê¯ħ": 931,
      "ê¯Łê¯Ĥê¯ħ": 932,
      "ê¯ľê¯Ĥê¯ģ": 933,
      "ê¯ľê¯Ĥê¯Ŀê¯ĥ": 934,
      "ê¯Ľê¯ģê¯Ģ": 935,
      "ê¯Ľê¯ģê¯Łê¯ģ": 936,
      "Ġê¯ĳê¯Ŀê¯ģ": 937,
      "Ġê¯ĳê¯Ŀê¯Ĳ": 938,
      "ê¯¡ê¯ķê¯Ĵ": 939,
      "ê¯¡ê¯Ĵê¯Ĺê¯ķ": 940,
      "Ġê¯ĥê¯Ķê¯Ľê¯ĩ": 941,
      "Ġê¯İê¯Ĺ": 942,
      "Ġê¯İê¯Ķ": 943,
      "Ġê¯İê¯Ķê¯ķ": 944,
      "Ġê¯İê¯łê¯Ģ": 945,
      "Ġê¯İê¯ħê¯Ķê¯Ĵ": 946,
      "Ġê¯Ķê¯ħ": 947,
      "Ġê¯Ĩê¯łê¯ħ": 948,
      "Ġê¯Ĩê¯łê¯ģ": 949,
      "Ġê¯Ĩê¯łê¯ħê¯ķ": 950,
      "Ġê¯Ĩê¯łê¯ħê¯Ķ": 951,
      "Ġê¯Ĩê¯łê¯Ģê¯ħ": 952,
      "Ġê¯ĳê¯įê¯Ł": 953,
      "Ġê¯ĳê¯įê¯Łê¯ħ": 954,
      "ê¯ħê¯ķê¯ģ": 955,
      "ê¯ŀê¯Ħê¯Ĵ": 956,
      "ê¯Łê¯ĸê¯Ī": 957,
      "ê¯Ķê¯Ĺê¯ķê¯ħ": 958,
      "Ġê¯ıê¯Ĩê¯Łê¯ħ": 959,
      "ê¯ıê¯Ķê¯Ĵê¯Ł": 960,
      "ê¯Ŀê¯ĸê¯Ĵ": 961,
      "ê¯ıê¯ĸê¯ħ": 962,
      "ê¯łê¯Ħê¯Ĺ": 963,
      "ê¯łê¯Ħê¯ħ": 964,
      "ê¯łê¯Ħê¯ģ": 965,
      "ê¯łê¯Ħê¯Ĵ": 966,
      "ê¯ģê¯ĩê¯Ĺ": 967,
      "Ġê¯ĳê¯īê¯Ŀ": 968,
      "ê¯¢ê¯ħê¯Ĵ": 969,
      "Ġê¯ħê¯Ŀê¯ķê¯Ķê¯Ĺ": 970,
      "Ġê¯Ĳê¯ĸê¯Łê¯Ł": 971,
      "ê¯ĥê¯ħê¯Ŀê¯ģ": 972,
      "ê¯Ľê¯Ĩê¯Ķ": 973,
      "ê¯Ľê¯Ĩê¯į": 974,
      "Ġê¯ĥê¯ģê¯Ľ": 975,
      "ê¯¢ê¯Ĺê¯Ĺ": 976,
      "Ġê¯ĥê¯Ĭê¯Łê¯ĩ": 977,
      "ê¯¡ê¯ĥê¯Łê¯Ĺê¯ħ": 978,
      "ê¯Łê¯ĸê¯Ķê¯Ľê¯Ģ": 979,
      "ê¯Ķê¯Ľê¯Ħê¯ģ": 980,
      "ê¯ħê¯Ķê¯Ŀê¯ķ": 981,
      "ê¯¡ê¯Īê¯łê¯Ĥ": 982,
      "ê¯Ĵê¯łê¯Ĥê¯Ľê¯Ħ": 983,
      "ê¯Ĵê¯łê¯Ĥê¯Ľê¯Ģê¯Ĺ": 984,
      "ê¯ıê¯Ĺê¯ħê¯Ģ": 985,
      "ê¯łê¯Ĩê¯Ķê¯Ľê¯Ģ": 986,
      "Ġê¯Ĩê¯łê¯ĩê¯ħê¯ķ": 987,
      "ê¯Ŀê¯ĥê¯Ĵê¯Ĺ": 988,
      "ê¯Ŀê¯Ĳê¯Ŀê¯Ĺ": 989,
      "ê¯Ģê¯Ķê¯Ŀê¯ķ": 990,
      "Ġê¯²ê¯¶": 991,
      "Ġê¯²ê¯¸": 992,
      "Ġê¯±ê¯°": 993,
      "ê¯Ŀê¯įê¯Łê¯ķ": 994,
      "Ġê¯Īê¯Ľê¯ĩê¯Ĺ": 995,
      "Ġê¯Ĩê¯łê¯Ħê¯Ĵ": 996,
      "ê¯įê¯Łê¯Ĺê¯Ľê¯Ģ": 997,
      "ê¯Łê¯ħê¯Ĵê¯Ĺê¯ķ": 998,
      "Ġê¯īê¯Ŀê¯Ĺê¯ķ": 999,
      "ê¯ĥê¯Īê¯ľ": 1000,
      "ê¯İê¯įê¯Łê¯Ĥê¯Ľê¯ĳ": 1001,
      "ê¯ľê¯Ĥê¯Ľê¯ĳê¯ħ": 1002,
      "ê¯ĥê¯Ľê¯ĩê¯ķê¯ħ": 1003,
      "ê¯Ģê¯Łê¯Ĺê¯Ł": 1004,
      "ê¯Ħê¯ŀê¯Ĵ": 1005,
      "ê¯Ľê¯İê¯Ķê¯Ĵ": 1006,
      "ê¯įê¯Łê¯Ĵê¯ħ": 1007,
      "Ġê¯įê¯Łê¯ĸê¯ķê¯Ŀ": 1008,
      "Ġê¯ģê¯Ŀê¯ĭ": 1009
    },
    "merges": [
      [
        "ê",
        "¯"
      ],
      [
        "Ġ",
        "ê¯"
      ],
      [
        "ê¯",
        "¤"
      ],
      [
        "ê¯",
        "¥"
      ],
      [
        "ê¯",
        "Ĺ"
      ],
      [
        "ê¯",
        "¦"
      ],
      [
        "ê¯",
        "£"
      ],
      [
        "ê¯",
        "¨"
      ],
      [
        "ê¯",
        "Ķ"
      ],
      [
        "ê¯",
        "ħ"
      ],
      [
        "č",
        "Ċ"
      ],
      [
        "ê¯",
        "ģ"
      ],
      [
        "ê¯",
        "ķ"
      ],
      [
        "Ġê¯",
        "ĳ"
      ],
      [
        "ê¯",
        "Ĵ"
      ],
      [
        "ê¯",
        "Ŀ"
      ],
      [
        "ê¯",
        "ı"
      ],
      [
        "ê¯",
        "Ł"
      ],
      [
        "ê¯",
        "Ń"
      ],
      [
        "ê¯",
        "©"
      ],
      [
        "ê¯",
        "Ľ"
      ],
      [
        "ê¯",
        "«"
      ],
      [
        "Ġê¯",
        "ĥ"
      ],
      [
        "Ġê¯",
        "«"
      ],
      [
        "ê¯",
        "ĥ"
      ],
      [
        "ê¯",
        "ĳ"
      ],
      [
        "ê¯",
        "ĩ"
      ],
      [
        "Ġê¯",
        "į"
      ],
      [
        "Ġê¯",
        "ģ"
      ],
      [
        "ê¯",
        "¡"
      ],
      [
        "ê¯",
        "Ģ"
      ],
      [
        "ê¯",
        "Į"
      ],
      [
        "ê¯",
        "ł"
      ],
      [
        "ê¯",
        "§"
      ],
      [
        "ê¯",
        "ĸ"
      ],
      [
        "Ġê¯",
        "ĩ"
      ],
      [
        "Ġê¯",
        "Ģ"
      ],
      [
        "Ġê¯",
        "Ĥ"
      ],
      [
        "ê¯",
        "Ī"
      ],
      [
        "Ġê¯",
        "Į"
      ],
      [
        "ê¯",
        "Ĥ"
      ],
      [
        "Ġê¯ĳ",
        "ê¯Ĺ"
      ],
      [
        "ê¯",
        "Ħ"
      ],
      [
        "ê¯",
        "¢"
      ],
      [
        "Ġê¯",
        "Ī"
      ],
      [
        "Ġê¯",
        "ħ"
      ],
      [
        "ê¯",
        "į"
      ],
      [
        "Ġê¯",
        "Ĩ"
      ],
      [
        "Ġê¯",
        "Ħ"
      ],
      [
        "ê¯ĳ",
        "ê¯Ĺ"
      ],
      [
        "ê¯",
        "İ"
      ],
      [
        "ê¯",
        "ľ"
      ],
      [
        "Ġê¯",
        "Ĭ"
      ],
      [
        "ê¯ı",
        "ê¯ħ"
      ],
      [
        "ê¯",
        "ī"
      ],
      [
        "ê¯",
        "ª"
      ],
      [
        "ê¯¦",
        "ê¯«"
      ],
      [
        "Ġê¯",
        "Ĳ"
      ],
      [
        "ê¯ı",
        "ê¯Ĺ"
      ],
      [
        "ê¯",
        "Ĩ"
      ],
      [
        "ê¯",
        "ŀ"
      ],
      [
        "ê¯",
        "Ĳ"
      ],
      [
        "ê¯ı",
        "ê¯Ķ"
      ],
      [
        "ê¯Ŀ",
        "ê¯ķ"
      ],
      [
        "Ġê¯ĥ",
        "ê¯Į"
      ],
      [
        "ê¯",
        "Ĭ"
      ],
      [
        "Ġê¯",
        "ı"
      ],
      [
        "ê¯Ł",
        "ê¯Ĺ"
      ],
      [
        "ê¯Ł",
        "ê¯ħ"
      ],
      [
        "ê¯ķ",
        "ê¯ħ"
      ],
      [
        "Ġê¯ĳ",
        "ê¯ĥ"
      ],
      [
        "ê¯",
        "ĭ"
      ],
      [
        "ê¯Ľ",
        "ê¯ĳ"
      ],
      [
        "ê¯£",
        "ê¯«"
      ],
      [
        "Ġ",
        "čĊ"
      ],
      [
        "ê¯ı",
        "ê¯ķ"
      ],
      [
        "ê¯Ľ",
        "ê¯ĩ"
      ],
      [
        "ê¯Ŀ",
        "ê¯Ĺ"
      ],
      [
        "ê¯Ķ",
        "ê¯Ĵ"
      ],
      [
        "Ġê¯",
        "ī"
      ],
      [
        "ê¯ı",
        "ê¯Ĵ"
      ],
      [
        "ê¯¤",
        "ê¯«"
      ],
      [
        "Ġê¯",
        "Ĺ"
      ],
      [
        "ê¯ķ",
        "ê¯Ģ"
      ],
      [
        "Ġê¯",
        "Ĵ"
      ],
      [
        "ê¯ł",
        "ê¯ĩ"
      ],
      [
        "Ġê¯",
        "ĭ"
      ],
      [
        "ê¯¡",
        "ê¯ī"
      ],
      [
        "ê¯ı",
        "ê¯Ł"
      ],
      [
        "ê¯¡",
        "ê¯Ĺ"
      ],
      [
        "Ġê¯",
        "ķ"
      ],
      [
        "ê¯ı",
        "ê¯ģ"
      ],
      [
        "ê¯Ľ",
        "ê¯Ħ"
      ],
      [
        "Ġê¯",
        "ļ"
      ],
      [
        "ê¯ķ",
        "ê¯Ĺ"
      ],
      [
        "ê¯Ŀ",
        "ê¯ħ"
      ],
      [
        "ê¯ł",
        "ê¯Ĥ"
      ],
      [
        "ê¯Ŀ",
        "ê¯ĥ"
      ],
      [
        "ê¯Ľ",
        "ê¯Ģ"
      ],
      [
        "ê¯ĸ",
        "ê¯Ķ"
      ],
      [
        "ê¯¡",
        "ê¯ģ"
      ],
      [
        "ê¯Ł",
        "ê¯Ĥ"
      ],
      [
        "ê¯ľ",
        "ê¯Ĥ"
      ],
      [
        "ê¯Ľ",
        "ê¯ģ"
      ],
      [
        "ê¯Ĺ",
        "ê¯ħ"
      ],
      [
        "ê¯Ĺ",
        "ê¯ķ"
      ],
      [
        "ê¯¥",
        "ê¯«"
      ],
      [
        "Ġê¯ĳ",
        "ê¯Ŀ"
      ],
      [
        "Ġê¯ĥ",
        "ê¯ĩ"
      ],
      [
        "ê¯Ł",
        "ê¯ķ"
      ],
      [
        "ê¯",
        "ļ"
      ],
      [
        "ê¯¡",
        "ê¯ķ"
      ],
      [
        "ê¯¡",
        "ê¯Ĵ"
      ],
      [
        "ê¯Ķ",
        "ê¯ģ"
      ],
      [
        "Ġê¯ĳ",
        "ê¯Ī"
      ],
      [
        "ê¯Ŀ",
        "ê¯Ĵ"
      ],
      [
        "ê¯Ł",
        "ê¯Ł"
      ],
      [
        "Ġê¯ĳ",
        "ê¯ħ"
      ],
      [
        "ê¯ı",
        "ê¯ĩ"
      ],
      [
        "Ġê¯ĥ",
        "ê¯ħ"
      ],
      [
        "ê¯Ł",
        "ê¯ģ"
      ],
      [
        "ê¯¦",
        ","
      ],
      [
        "ê¯Ŀ",
        "ê¯ģ"
      ],
      [
        "Ġê¯ĥ",
        "ê¯Ķ"
      ],
      [
        "Ġê¯",
        "İ"
      ],
      [
        "Ġê¯",
        "Ķ"
      ],
      [
        "ê¯Ĺ",
        "ê¯Ĵ"
      ],
      [
        "ê¯Ķ",
        "ê¯Ľê¯ĳ"
      ],
      [
        "Ġê¯Ĩ",
        "ê¯ł"
      ],
      [
        "Ġê¯ĳ",
        "ê¯į"
      ],
      [
        "ê¯Ŀ",
        "ê¯Ł"
      ],
      [
        "Ġê¯",
        "ĸ"
      ],
      [
        "ê¯ħ",
        "ê¯ķ"
      ],
      [
        "ê¯ŀ",
        "ê¯Ħ"
      ],
      [
        "ê¯Ł",
        "ê¯Ĵ"
      ],
      [
        "ê¯ł",
        "ê¯ģ"
      ],
      [
        "ê¯ł",
        "ê¯Ĩ"
      ],
      [
        "ê¯Ł",
        "ê¯ĸ"
      ],
      [
        "Ġê¯Ģ",
        "ê¯ĥ"
      ],
      [
        "ê¯ĥ",
        "ê¯Į"
      ],
      [
        "ê¯Ķ",
        "ê¯Ĺ"
      ],
      [
        "ê¯Ł",
        "ê¯ĩ"
      ],
      [
        "Ġê¯ħ",
        "ê¯łê¯ĩ"
      ],
      [
        "Ġê¯ı",
        "ê¯Ĩ"
      ],
      [
        "ê¯ıê¯ķ",
        "ê¯Ĺ"
      ],
      [
        "ê¯İ",
        "ê¯ķ"
      ],
      [
        "Ġê¯ī",
        "ê¯ģ"
      ],
      [
        "ê¯Ľ",
        "ê¯ŀ"
      ],
      [
        "ê¯ıê¯Ķ",
        "ê¯Ĵ"
      ],
      [
        "ê¯",
        "°"
      ],
      [
        "ê¯Ŀ",
        "ê¯ĸ"
      ],
      [
        "ê¯ı",
        "ê¯ĥ"
      ],
      [
        "ê¯ı",
        "ê¯ĸ"
      ],
      [
        "ê¯ł",
        "ê¯Ħ"
      ],
      [
        "ê¯£",
        ","
      ],
      [
        "ê¯ģ",
        "ê¯ĩ"
      ],
      [
        "Ġê¯Ī",
        "ê¯Ķ"
      ],
      [
        "ê¯Ķ",
        "ê¯ķ"
      ],
      [
        "Ġê¯ĳ",
        "ê¯ģ"
      ],
      [
        "Ġê¯ĳ",
        "ê¯ī"
      ],
      [
        "ê¯ķ",
        "ê¯Ĵ"
      ],
      [
        "Ġê¯ĥ",
        "ê¯Ĩ"
      ],
      [
        "ê¯İ",
        "ê¯Ĺ"
      ],
      [
        "Ġê¯ı",
        "ê¯ħ"
      ],
      [
        "ê¯Ķ",
        "ê¯ħ"
      ],
      [
        "ê¯ĸ",
        "ê¯ķ"
      ],
      [
        "ê¯¢",
        "ê¯ħ"
      ],
      [
        "Ġê¯",
        "Ŀ"
      ],
      [
        "ê¯ı",
        "ê¯Į"
      ],
      [
        "Ġê¯į",
        "ê¯Łê¯Ĺ"
      ],
      [
        "Ġê¯Ģ",
        "ê¯Ķ"
      ],
      [
        "Ġê¯ı",
        "ê¯ģ"
      ],
      [
        "ê¯Ľê¯Ħ",
        "ê¯Ĺ"
      ],
      [
        "Ġê¯ĥ",
        "ê¯ĥ"
      ],
      [
        "Ġê¯ĥ",
        "ê¯Ī"
      ],
      [
        "ê¯ĥ",
        "ê¯Ľ"
      ],
      [
        "Ġê¯ħ",
        "ê¯Ŀê¯ķ"
      ],
      [
        "Ġê¯Ĳ",
        "ê¯ĸ"
      ],
      [
        "ê¯Łê¯ħ",
        "ê¯ķ"
      ],
      [
        "ê¯ķ",
        "ê¯ģ"
      ],
      [
        "ê¯ı",
        "ê¯Ĳ"
      ],
      [
        "ê¯Ł",
        "ê¯ł"
      ],
      [
        "ê¯ľ",
        "ê¯ģ"
      ],
      [
        "ê¯Ķê¯Ĵ",
        "ê¯Ĺ"
      ],
      [
        "Ġê¯ĥê¯ĩ",
        "ê¯Ŀê¯Ĺ"
      ],
      [
        "ê¯ĥ",
        "ê¯ħ"
      ],
      [
        "ê¯ł",
        "ê¯ħ"
      ],
      [
        "Ġê¯ĳ",
        "ê¯ĭ"
      ],
      [
        "ê¯Ľê¯ĳ",
        "ê¯Ĵ"
      ],
      [
        "ê¯¤",
        ","
      ],
      [
        "ê¯Ķ",
        "ê¯Ľ"
      ],
      [
        "ê¯Ŀ",
        "ê¯Ħ"
      ],
      [
        "ê¯Ľ",
        "ê¯Ĩ"
      ],
      [
        "Ġê¯ĥ",
        "ê¯ģ"
      ],
      [
        "ê¯¢",
        "ê¯Ĺ"
      ],
      [
        "ê¯İ",
        "ê¯ĭ"
      ],
      [
        "ê¯ľ",
        "ê¯Ĺ"
      ],
      [
        "Ġê¯",
        "²"
      ],
      [
        "ê¯Ķ",
        "ê¯Ŀê¯ĥ"
      ],
      [
        "ê¯ģ",
        "ê¯Ł"
      ],
      [
        "ê¯Ĵ",
        "ê¯ħ"
      ],
      [
        "ê¯ı",
        "ê¯Ī"
      ],
      [
        "Ġê¯ĥ",
        "ê¯į"
      ],
      [
        "Ġê¯ĥ",
        "ê¯Ĭ"
      ],
      [
        "ê¯¡",
        "ê¯ĥ"
      ],
      [
        "ê¯ĸ",
        "ê¯Ĺ"
      ],
      [
        "ê¯¢",
        "ê¯Ĳ"
      ],
      [
        "ê¯Ĺ",
        "ê¯ķê¯ħ"
      ],
      [
        "ê¯¨",
        "ê¯«"
      ],
      [
        "ê¯Ķ",
        "ê¯ķê¯ħ"
      ],
      [
        "ê¯ģ",
        "ê¯Ģ"
      ],
      [
        "ê¯ı",
        "ê¯į"
      ],
      [
        "ê¯Ł",
        "ê¯Ī"
      ],
      [
        "ê¯Ł",
        "ê¯ĸê¯Ķ"
      ],
      [
        "ê¯ł",
        "ê¯ŀ"
      ],
      [
        "ê¯İ",
        "ê¯Ķ"
      ],
      [
        "ê¯Ķ",
        "ê¯Ľê¯Ħ"
      ],
      [
        "ê¯ı",
        "ê¯ĸê¯Ķ"
      ],
      [
        "ê¯Ł",
        "ê¯ķê¯Ĺ"
      ],
      [
        "ê¯Ľ",
        "ê¯ħ"
      ],
      [
        "Ġê¯ĳê¯Ĺ",
        "ê¯Ĵ"
      ],
      [
        "ê¯¢",
        "ê¯Ł"
      ],
      [
        "Ġê¯Ĩ",
        "ê¯łê¯Ĥ"
      ],
      [
        "ê¯İ",
        "ê¯Ł"
      ],
      [
        "ê¯Ĭ",
        "ê¯ĸê¯ķ"
      ],
      [
        "Ġê¯ı",
        "ê¯ķ"
      ],
      [
        "ê¯Ķê¯Ĵ",
        "ê¯ģ"
      ],
      [
        "ê¯ħ",
        "ê¯Ķ"
      ],
      [
        "ê¯ı",
        "ê¯Ĩ"
      ],
      [
        "ê¯¡",
        "ê¯Ī"
      ],
      [
        "ê¯ł",
        "ê¯Ģ"
      ],
      [
        "ê¯ĸ",
        "ê¯Ĵ"
      ],
      [
        "Ġê¯Ģ",
        "ê¯Į"
      ],
      [
        "ê¯İ",
        "ê¯ģ"
      ],
      [
        "ê¯ŀ",
        "ê¯ĩ"
      ],
      [
        "Ġê¯ĳê¯ĥ",
        "ê¯Ĺ"
      ],
      [
        "ê¯ľê¯Ĥ",
        "ê¯Ĵ"
      ],
      [
        "ê¯ıê¯ĩ",
        "ê¯Ķ"
      ],
      [
        "ê¯Ķ",
        "ê¯Ĳ"
      ],
      [
        "ê¯Ĵ",
        "ê¯łê¯Ĥ"
      ],
      [
        "ê¯Ľ",
        "ê¯Ĥ"
      ],
      [
        "Ġê¯į",
        "ê¯Ķ"
      ],
      [
        "ê¯¡",
        "ê¯ĸ"
      ],
      [
        "ê¯¢",
        "ê¯Ĵ"
      ],
      [
        "ê¯ıê¯Ĺ",
        "ê¯ħ"
      ],
      [
        "ê¯ŀ",
        "ê¯Ĩ"
      ],
      [
        "Ġê¯ı",
        "ê¯ĥ"
      ],
      [
        "ê¯ıê¯ķ",
        "ê¯Ĵ"
      ],
      [
        "Ġê¯ĥê¯ħ",
        "ê¯Ŀê¯ģ"
      ],
      [
        "ê¯łê¯Ĩ",
        "ê¯Ķ"
      ],
      [
        "ê¯",
        "³"
      ],
      [
        "ê¯Ķ",
        "ê¯Ģ"
      ],
      [
        "ê¯ģ",
        "ê¯Ħ"
      ],
      [
        "Ġê¯ĳ",
        "ê¯Ķ"
      ],
      [
        "ê¯ı",
        "ê¯ķê¯ħ"
      ],
      [
        "ê¯Ł",
        "ê¯Ĭ"
      ],
      [
        "ê¯©",
        "-"
      ],
      [
        "ê¯Ľ",
        "ê¯Ī"
      ],
      [
        "ê¯ĥ",
        "ê¯Ĺ"
      ],
      [
        "ê¯ĳ",
        "ê¯Ī"
      ],
      [
        "Ġê¯Ĩ",
        "ê¯łê¯ĩ"
      ],
      [
        "ê¯ī",
        "ê¯ģ"
      ],
      [
        "ê¯Ĳ",
        "ê¯Ŀ"
      ],
      [
        "ê¯Ŀê¯ķ",
        "ê¯Ĺ"
      ],
      [
        "Ġê¯ĳê¯ĥ",
        "ê¯ħ"
      ],
      [
        "ê¯łê¯Ĥ",
        "ê¯Ĵ"
      ],
      [
        "ê¯Ŀê¯ĥ",
        "ê¯Ĵ"
      ],
      [
        "ê¯¥",
        ","
      ],
      [
        "ê¯Ĺ",
        "ê¯Ł"
      ],
      [
        "ê¯¨",
        "ê¯¨"
      ],
      [
        "ê¯ħ",
        "ê¯Ĺ"
      ],
      [
        "ê¯ģ",
        "ê¯ģ"
      ],
      [
        "ê¯ı",
        "ê¯Ģ"
      ],
      [
        "ê¯ĥ",
        "ê¯į"
      ],
      [
        "ê¯ĳ",
        "ê¯ģ"
      ],
      [
        "ê¯ĳ",
        "ê¯ĥ"
      ],
      [
        "ê¯ĩ",
        "ê¯Ĵ"
      ],
      [
        "ê¯¡",
        "ê¯Ł"
      ],
      [
        "ê¯¡",
        "ê¯ķê¯Ĺ"
      ],
      [
        "ê¯Ģ",
        "ê¯ĥ"
      ],
      [
        "Ġê¯ĥê¯ħ",
        "ê¯Ŀ"
      ],
      [
        "ê¯°",
        "ê¯°"
      ],
      [
        "ê¯¥",
        "-"
      ],
      [
        "ê¯Ĺ",
        "ê¯Ķ"
      ],
      [
        "ê¯Ĺ",
        "ê¯ģ"
      ],
      [
        "ê¯Ķ",
        "ê¯ĩ"
      ],
      [
        "ê¯Ķ",
        "ê¯Ľê¯Ģ"
      ],
      [
        "ê¯Ĵ",
        "ê¯ģ"
      ],
      [
        "ê¯Ŀ",
        "ê¯ĩ"
      ],
      [
        "ê¯Ŀ",
        "ê¯Ĳ"
      ],
      [
        "ê¯Ŀ",
        "ê¯Ĭ"
      ],
      [
        "ê¯©",
        "ê¯«"
      ],
      [
        "ê¯Ľ",
        "ê¯ł"
      ],
      [
        "ê¯ĳ",
        "ê¯ī"
      ],
      [
        "ê¯Ģ",
        "ê¯Ķ"
      ],
      [
        "ê¯ĸ",
        "ê¯ħ"
      ],
      [
        "Ġê¯Ģ",
        "ê¯ħ"
      ],
      [
        "Ġê¯ħ",
        "ê¯į"
      ],
      [
        "Ġê¯Ĳ",
        "ê¯Ł"
      ],
      [
        "ê¯¡ê¯ī",
        "ê¯ģ"
      ],
      [
        "ê¯Ľê¯Ħ",
        "ê¯ħ"
      ],
      [
        "ê¯¡ê¯ķ",
        "ê¯ģ"
      ],
      [
        "ê¯Ŀê¯Ĵ",
        "ê¯ħ"
      ],
      [
        "Ġê¯²",
        "ê¯"
      ],
      [
        "Ġê¯",
        "±"
      ],
      [
        "ê¯Ķ",
        "ê¯Ľê¯ĩ"
      ],
      [
        "ê¯ķ",
        "ê¯ĩ"
      ],
      [
        "ê¯Ŀ",
        "ê¯į"
      ],
      [
        "ê¯ĳ",
        "ê¯ĩ"
      ],
      [
        "Ġê¯ģ",
        "ê¯Ħ"
      ],
      [
        "ê¯¡",
        "ê¯ħ"
      ],
      [
        "ê¯Ģ",
        "ê¯ħ"
      ],
      [
        "Ġê¯Ī",
        "ê¯Ľê¯ĩ"
      ],
      [
        "Ġê¯Ī",
        "ê¯Łê¯Ĥ"
      ],
      [
        "Ġê¯Ī",
        "ê¯Łê¯ķ"
      ],
      [
        "ê¯ıê¯Ĺ",
        "ê¯Ĵ"
      ],
      [
        "ê¯ıê¯Ķ",
        "ê¯ķ"
      ],
      [
        "ê¯Ŀê¯ķ",
        "ê¯ģ"
      ],
      [
        "Ġê¯ĳê¯ĥ",
        "ê¯ģ"
      ],
      [
        "ê¯ıê¯ķ",
        "ê¯ģ"
      ],
      [
        "ê¯ıê¯Ł",
        "ê¯Ł"
      ],
      [
        "ê¯Ľê¯Ģ",
        "ê¯Ĺ"
      ],
      [
        "ê¯Łê¯ģ",
        "ê¯ĩê¯Ĵ"
      ],
      [
        "Ġê¯Ĩê¯ł",
        "ê¯Ħ"
      ],
      [
        "Ġê¯Ĩê¯ł",
        "ê¯ŀ"
      ],
      [
        "Ġ",
        "ĠčĊ"
      ],
      [
        "Ġê¯",
        "¢"
      ],
      [
        "ê¯Ĺ",
        "ê¯Ģ"
      ],
      [
        "ê¯Ķ",
        "ê¯ĸ"
      ],
      [
        "ê¯Ķ",
        "ê¯Ľê¯Ħê¯Ĺ"
      ],
      [
        "ê¯ħ",
        "ê¯Ģ"
      ],
      [
        "ê¯ķ",
        "ê¯Ľ"
      ],
      [
        "Ġê¯ĳ",
        "ê¯Ĵ"
      ],
      [
        "Ġê¯ĳ",
        "ê¯Ħ"
      ],
      [
        "Ġê¯ĳ",
        "ê¯Łê¯ķ"
      ],
      [
        "ê¯Ĵ",
        "ê¯Ĺ"
      ],
      [
        "ê¯ĥ",
        "ê¯ģ"
      ],
      [
        "ê¯ĥ",
        "ê¯ĥ"
      ],
      [
        "ê¯¡",
        "ê¯ĩ"
      ],
      [
        "ê¯¡",
        "ê¯Ĭ"
      ],
      [
        "ê¯Ģ",
        "ê¯Ĥ"
      ],
      [
        "ê¯ĸ",
        "ê¯Ł"
      ],
      [
        "Ġê¯Ģ",
        "ê¯Ĥ"
      ],
      [
        "ê¯Ī",
        "ê¯Ķ"
      ],
      [
        "ê¯į",
        "ê¯Łê¯Ĺ"
      ],
      [
        "ê¯ĳê¯Ĺ",
        "ê¯Ĵ"
      ],
      [
        "ê¯İ",
        "ê¯ħ"
      ],
      [
        "ê¯İ",
        "ê¯Ħ"
      ],
      [
        "Ġê¯Ĳ",
        "ê¯Ķ"
      ],
      [
        "ê¯ŀ",
        "ê¯ģ"
      ],
      [
        "ê¯Ĳ",
        "ê¯ķ"
      ],
      [
        "ê¯ıê¯Ķ",
        "ê¯ģ"
      ],
      [
        "ê¯Łê¯Ĺ",
        "ê¯Ĵ"
      ],
      [
        "ê¯Łê¯ħ",
        "ê¯ħ"
      ],
      [
        "ê¯Łê¯ħ",
        "ê¯ģ"
      ],
      [
        "ê¯Łê¯ħ",
        "ê¯Ĵ"
      ],
      [
        "Ġê¯ī",
        "ê¯Ŀê¯Ĺ"
      ],
      [
        "ê¯Ŀê¯ħ",
        "ê¯ģ"
      ],
      [
        "ê¯Łê¯Ĥ",
        "ê¯Ľê¯ĳ"
      ],
      [
        "Ġê¯ħê¯Ŀê¯ķ",
        "ê¯Ŀ"
      ],
      [
        "Ġê¯Ĳê¯ĸ",
        "ê¯Ł"
      ],
      [
        "Ġê¯",
        "³"
      ],
      [
        "ê¯Ķ",
        "ê¯ĥ"
      ],
      [
        "ê¯ħ",
        "ê¯ģ"
      ],
      [
        "Ġê¯ĳ",
        "ê¯Ģ"
      ],
      [
        "Ġê¯ĳ",
        "ê¯Ĳê¯ķ"
      ],
      [
        "ê¯Ŀ",
        "ê¯ĸê¯Ķ"
      ],
      [
        "ê¯ı",
        "ê¯ł"
      ],
      [
        "ê¯Ľ",
        "ê¯Ĭ"
      ],
      [
        "Ġê¯ĥ",
        "ê¯Ł"
      ],
      [
        "ê¯ĥ",
        "ê¯Ķ"
      ],
      [
        "ê¯ĥ",
        "ê¯Ī"
      ],
      [
        "ê¯ĳ",
        "ê¯į"
      ],
      [
        "ê¯ĩ",
        "ê¯ħ"
      ],
      [
        "ê¯ĩ",
        "ê¯¡"
      ],
      [
        "ê¯ł",
        "ê¯Ī"
      ],
      [
        "ê¯ĸ",
        "ê¯ķê¯ħ"
      ],
      [
        "ê¯İ",
        "ê¯Ĵ"
      ],
      [
        "ê¯İ",
        "ê¯į"
      ],
      [
        "ê¯ľ",
        "ê¯Ĵ"
      ],
      [
        "ê¯ıê¯ħ",
        "ê¯Ĺ"
      ],
      [
        "ê¯ŀ",
        "ê¯ŀ"
      ],
      [
        "ê¯ıê¯Ķ",
        "ê¯Ĺ"
      ],
      [
        "Ġê¯ı",
        "ê¯Ħ"
      ],
      [
        "Ġê¯ı",
        "ê¯Łê¯ĩ"
      ],
      [
        "ê¯Łê¯ħ",
        "ê¯Ķ"
      ],
      [
        "Ġê¯ī",
        "ê¯Ŀê¯ķ"
      ],
      [
        "Ġê¯Ĺ",
        "ê¯Ĵ"
      ],
      [
        "ê¯¡ê¯Ĺ",
        "ê¯Ĵ"
      ],
      [
        "ê¯Ľê¯Ħ",
        "ê¯ģ"
      ],
      [
        "ê¯Ľê¯Ģ",
        "ê¯ģ"
      ],
      [
        "ê¯Łê¯Ĥ",
        "ê¯Ĵ"
      ],
      [
        "ê¯ľê¯Ĥ",
        "ê¯Ľê¯ĳ"
      ],
      [
        "ê¯Ĺê¯ħ",
        "ê¯Ģ"
      ],
      [
        "Ġê¯Ĩê¯ł",
        "ê¯Ī"
      ],
      [
        "ê¯ıê¯Ķê¯Ĵ",
        "ê¯Ĺ"
      ],
      [
        "Ġê¯Ģê¯Ķ",
        "ê¯Ŀê¯ķ"
      ],
      [
        "ê¯¤",
        "-"
      ],
      [
        "ê¯Ĺ",
        "ê¯Ĺ"
      ],
      [
        "ê¯¦",
        "-"
      ],
      [
        "ê¯Ķ",
        "ê¯ł"
      ],
      [
        "ê¯ħ",
        "ê¯ħ"
      ],
      [
        "ê¯ħ",
        "ê¯łê¯ĩ"
      ],
      [
        "ê¯ģ",
        "ê¯ł"
      ],
      [
        "Ġê¯ĳ",
        "ê¯ĩ"
      ],
      [
        "ê¯Ĵ",
        "ê¯łê¯Ħ"
      ],
      [
        "ê¯Ŀ",
        "ê¯Ī"
      ],
      [
        "ê¯Ŀ",
        "ê¯Ĥ"
      ],
      [
        "ê¯ı",
        "ê¯Ŀ"
      ],
      [
        "ê¯ı",
        "ê¯ŀê¯ĩ"
      ],
      [
        "ê¯Ľ",
        "ê¯ĸ"
      ],
      [
        "Ġê¯ĥ",
        "ê¯Ģ"
      ],
      [
        "Ġê¯ĥ",
        "ê¯ī"
      ],
      [
        "Ġê¯ĥ",
        "ê¯Ĳ"
      ],
      [
        "ê¯ĥ",
        "ê¯Ĩ"
      ],
      [
        "ê¯ĥ",
        "ê¯Ľê¯ĩ"
      ],
      [
        "ê¯ĳ",
        "ê¯Ŀ"
      ],
      [
        "Ġê¯į",
        "ê¯Ľê¯Ĩ"
      ],
      [
        "ê¯Ģ",
        "ê¯Ł"
      ],
      [
        "ê¯Ģ",
        "ê¯Łê¯Ĺ"
      ],
      [
        "ê¯Ħ",
        "ê¯ŀ"
      ],
      [
        "ê¯¢",
        "ê¯Łê¯ģê¯ĩê¯Ĵ"
      ],
      [
        "Ġê¯Ī",
        "ê¯ľê¯Ĥ"
      ],
      [
        "Ġê¯Ī",
        "ê¯ľê¯Ĥê¯Ĵ"
      ],
      [
        "ê¯İ",
        "ê¯Ī"
      ],
      [
        "ê¯İ",
        "ê¯Łê¯Ĺ"
      ],
      [
        "ê¯İ",
        "ê¯Łê¯ģ"
      ],
      [
        "ê¯ľ",
        "ê¯Ħ"
      ],
      [
        "Ġê¯Ĭ",
        "ê¯Ķ"
      ],
      [
        "Ġê¯Ĭ",
        "ê¯Ŀê¯ĸ"
      ],
      [
        "Ġê¯Ĭ",
        "ê¯ķê¯Ľ"
      ],
      [
        "ê¯ıê¯ħ",
        "ê¯ĥê¯Ľ"
      ],
      [
        "ê¯ª",
        "ê¯«"
      ],
      [
        "Ġê¯Ĳ",
        "ê¯ķ"
      ],
      [
        "ê¯ıê¯Ĺ",
        "ê¯Ĺ"
      ],
      [
        "ê¯ıê¯Ĺ",
        "ê¯ķ"
      ],
      [
        "ê¯ŀ",
        "ê¯ħ"
      ],
      [
        "ê¯ıê¯Ķ",
        "ê¯ħ"
      ],
      [
        "ê¯ıê¯Ķ",
        "ê¯ķê¯ħ"
      ],
      [
        "ê¯Ŀê¯ķ",
        "ê¯Ĵ"
      ],
      [
        "Ġê¯ı",
        "ê¯Ł"
      ],
      [
        "Ġê¯ı",
        "ê¯Ŀê¯Ħ"
      ],
      [
        "ê¯Łê¯ħ",
        "ê¯Ĺ"
      ],
      [
        "Ġê¯ĳê¯ĥ",
        "ê¯Ī"
      ],
      [
        "ê¯Ľê¯ĩ",
        "ê¯ħ"
      ],
      [
        "Ġê¯ī",
        "ê¯Ŀê¯ĥ"
      ],
      [
        "ê¯łê¯ĩ",
        "ê¯ħ"
      ],
      [
        "ê¯¡ê¯ī",
        "ê¯Ĵ"
      ],
      [
        "Ġê¯ķ",
        "ê¯ķ"
      ],
      [
        "ê¯ķê¯Ĺ",
        "ê¯Ĵ"
      ],
      [
        "ê¯łê¯Ĥ",
        "ê¯ģ"
      ],
      [
        "ê¯ĸê¯Ķ",
        "ê¯Ľê¯Ģ"
      ],
      [
        "ê¯Łê¯Ĥ",
        "ê¯Ĺ"
      ],
      [
        "ê¯Ľê¯ģ",
        "ê¯Ł"
      ],
      [
        "ê¯Ľê¯ģ",
        "ê¯ĩ"
      ],
      [
        "Ġê¯ĥê¯ĩ",
        "ê¯Ŀ"
      ],
      [
        "Ġê¯İ",
        "ê¯ĥ"
      ],
      [
        "Ġê¯İ",
        "ê¯łê¯Ĥ"
      ],
      [
        "ê¯ħê¯ķ",
        "ê¯Ĵ"
      ],
      [
        "ê¯łê¯Ĩ",
        "ê¯ķ"
      ],
      [
        "ê¯ıê¯ĸ",
        "ê¯Ĵ"
      ],
      [
        "Ġê¯ħê¯Ŀê¯ķ",
        "ê¯Ķ"
      ],
      [
        "ê¯Ķê¯Ľê¯Ħ",
        "ê¯ħ"
      ],
      [
        "ê¯Ľê¯Ĥ",
        "ê¯Ľê¯ĳ"
      ],
      [
        "ê¯ŀê¯Ĩ",
        "ê¯Ķê¯Ľê¯Ģ"
      ],
      [
        "ê¯³",
        "ê¯°"
      ],
      [
        "ê¯",
        "²"
      ],
      [
        "ê¯",
        "µ"
      ],
      [
        "Ġê¯",
        "µ"
      ],
      [
        "Ġê¯",
        "¶"
      ],
      [
        "Ġê¯",
        "Ł"
      ],
      [
        "ê¯¥",
        "ê¯Ń"
      ],
      [
        "ê¯Ĺ",
        "ê¯Ľ"
      ],
      [
        "ê¯Ĺ",
        "ê¯ĥê¯Ľ"
      ],
      [
        "ê¯¨",
        ","
      ],
      [
        "ê¯Ķ",
        "ê¯Ŀê¯ħ"
      ],
      [
        "ê¯Ķ",
        "ê¯Ŀê¯Ĵê¯ħ"
      ],
      [
        "ê¯ħ",
        "ê¯ł"
      ],
      [
        "ê¯ħ",
        "ê¯ķê¯ħ"
      ],
      [
        "ê¯ħ",
        "ê¯Ķê¯ģ"
      ],
      [
        "ê¯Ĵ",
        "ê¯Ŀ"
      ],
      [
        "ê¯Ĵ",
        "ê¯ľ"
      ],
      [
        "ê¯Ĵ",
        "ê¯łê¯Ĩê¯Ķ"
      ],
      [
        "ê¯ı",
        "ê¯Ħ"
      ],
      [
        "ê¯ı",
        "ê¯łê¯ģ"
      ],
      [
        "ê¯©",
        ","
      ],
      [
        "ê¯Ľ",
        "ê¯Ľ"
      ],
      [
        "ê¯Ľ",
        "ê¯İ"
      ],
      [
        "Ġê¯ĥ",
        "ê¯Ħ"
      ],
      [
        "ê¯ĥ",
        "ê¯Ł"
      ],
      [
        "ê¯ĥ",
        "ê¯ĩ"
      ],
      [
        "ê¯ĥ",
        "ê¯Ħ"
      ],
      [
        "ê¯ĥ",
        "ê¯ıê¯ħ"
      ],
      [
        "ê¯ĥ",
        "ê¯Ĭ"
      ],
      [
        "ê¯ĳ",
        "ê¯Ĳ"
      ],
      [
        "ê¯ĩ",
        "ê¯ķ"
      ],
      [
        "Ġê¯ģ",
        "ê¯Łê¯Ĺ"
      ],
      [
        "ê¯¡",
        "ê¯Ģ"
      ],
      [
        "ê¯¡",
        "ê¯į"
      ],
      [
        "ê¯¡",
        "ê¯ķê¯ħ"
      ],
      [
        "ê¯ĸ",
        "ê¯Ģ"
      ],
      [
        "Ġê¯ĩ",
        "ê¯ħ"
      ],
      [
        "Ġê¯Ģ",
        "ê¯Ł"
      ],
      [
        "ê¯Ī",
        "ê¯ľ"
      ],
      [
        "ê¯Ī",
        "ê¯łê¯Ĩ"
      ],
      [
        "ê¯Ī",
        "ê¯ľê¯ģ"
      ],
      [
        "Ġê¯Į",
        "ê¯Ķ"
      ],
      [
        "ê¯¢",
        "ê¯Ķ"
      ],
      [
        "ê¯¢",
        "ê¯ķ"
      ],
      [
        "Ġê¯ħ",
        "ê¯Ŀê¯Ĺ"
      ],
      [
        "ê¯į",
        "ê¯ľê¯Ĥ"
      ],
      [
        "ê¯į",
        "ê¯Łê¯Ĵ"
      ],
      [
        "ê¯İ",
        "ê¯ķê¯ħ"
      ],
      [
        "ê¯ľ",
        "ê¯ħ"
      ],
      [
        "ê¯ľ",
        "ê¯ĩ"
      ],
      [
        "ê¯ľ",
        "ê¯ĸ"
      ],
      [
        "Ġê¯Ĭ",
        "ê¯Ŀê¯ĥ"
      ],
      [
        "Ġê¯Ĳ",
        "ê¯ħ"
      ],
      [
        "ê¯ıê¯Ĺ",
        "ê¯ħê¯ķ"
      ],
      [
        "ê¯ıê¯Ķ",
        "ê¯Ŀê¯ĥ"
      ],
      [
        "ê¯ıê¯Ķ",
        "ê¯Ľê¯ŀ"
      ],
      [
        "ê¯Ŀê¯ķ",
        "ê¯ħ"
      ],
      [
        "ê¯Ĭ",
        "ê¯ĸê¯Ķ"
      ],
      [
        "Ġê¯ı",
        "ê¯ĩ"
      ],
      [
        "ê¯Łê¯Ĺ",
        "ê¯Ĺ"
      ],
      [
        "ê¯Łê¯Ĺ",
        "ê¯ħ"
      ],
      [
        "ê¯Łê¯ħ",
        "ê¯ķê¯ħ"
      ],
      [
        "ê¯Łê¯ħ",
        "ê¯Ķê¯Ĵ"
      ],
      [
        "ê¯Łê¯ħ",
        "ê¯Ķê¯ģ"
      ],
      [
        "Ġê¯ĳê¯ĥ",
        "ê¯Ĵ"
      ],
      [
        "ê¯Ŀê¯Ĺ",
        "ê¯ģ"
      ],
      [
        "ê¯Ŀê¯Ĺ",
        "ê¯Ĵ"
      ],
      [
        "Ġê¯Ĺ",
        "ê¯ģ"
      ],
      [
        "ê¯Ŀê¯ħ",
        "ê¯ĥê¯Ľ"
      ],
      [
        "ê¯Ĺê¯ķ",
        "ê¯ģ"
      ],
      [
        "ê¯Ĺê¯ķ",
        "ê¯Ĵ"
      ],
      [
        "Ġê¯ĳê¯Ŀ",
        "ê¯ĩ"
      ],
      [
        "ê¯ļ",
        "ê¯Ķ"
      ],
      [
        "ê¯Ķê¯ģ",
        "ê¯Ł"
      ],
      [
        "ê¯ıê¯ĩ",
        "ê¯ķ"
      ],
      [
        "ê¯Ķê¯Ľê¯ĳ",
        "ê¯Ĵ"
      ],
      [
        "ê¯ŀê¯Ħ",
        "ê¯Ĺ"
      ],
      [
        "ê¯Łê¯Ĵ",
        "ê¯Ĺê¯ķ"
      ],
      [
        "ê¯ıê¯Ķê¯Ĵ",
        "ê¯ħ"
      ],
      [
        "ê¯ıê¯Ķê¯Ĵ",
        "ê¯ģ"
      ],
      [
        "Ġê¯ĳê¯ī",
        "ê¯Ŀê¯ķ"
      ],
      [
        "Ġê¯Ŀ",
        "ê¯ĩ"
      ],
      [
        "Ġê¯Ŀ",
        "ê¯Į"
      ],
      [
        "Ġê¯Ĳê¯ĸ",
        "ê¯Ĺ"
      ],
      [
        "Ġê¯Ĳê¯ĸ",
        "ê¯ħ"
      ],
      [
        "Ġê¯ĥê¯Ĳ",
        "ê¯Ŀê¯ģ"
      ],
      [
        "Ġê¯",
        "´"
      ],
      [
        "Ġê¯",
        "·"
      ],
      [
        "Ġê¯",
        "¸"
      ],
      [
        "Ġê¯",
        "Ľ"
      ],
      [
        "ê¯¥",
        "ê¯¥"
      ],
      [
        "ê¯Ĺ",
        "ê¯ĥ"
      ],
      [
        "ê¯Ĺ",
        "ê¯Į"
      ],
      [
        "ê¯¨",
        "ê¯Ń"
      ],
      [
        "ê¯Ķ",
        "ê¯Ł"
      ],
      [
        "ê¯Ķ",
        "ê¯Ŀê¯Ĺ"
      ],
      [
        "ê¯Ķ",
        "ê¯ļ"
      ],
      [
        "ê¯ħ",
        "ê¯Ī"
      ],
      [
        "ê¯ħ",
        "ê¯Ķê¯Ĵ"
      ],
      [
        "ê¯ħ",
        "ê¯ķê¯Ģ"
      ],
      [
        "ê¯ģ",
        "ê¯ĭ"
      ],
      [
        "ê¯ķ",
        "ê¯Ķ"
      ],
      [
        "ê¯ķ",
        "ê¯Ŀ"
      ],
      [
        "ê¯ķ",
        "ê¯Ĥ"
      ],
      [
        "ê¯ķ",
        "ê¯Ľê¯ģ"
      ],
      [
        "Ġê¯ĳ",
        "ê¯Ĩ"
      ],
      [
        "Ġê¯ĳ",
        "ê¯ŀ"
      ],
      [
        "ê¯Ĵ",
        "ê¯Ī"
      ],
      [
        "ê¯Ĵ",
        "ê¯ŀ"
      ],
      [
        "ê¯Ĵ",
        "ê¯Ĺê¯ķê¯ħ"
      ],
      [
        "ê¯ı",
        "ê¯ĳ"
      ],
      [
        "ê¯ı",
        "ê¯Łê¯ħ"
      ],
      [
        "ê¯ı",
        "ê¯ļ"
      ],
      [
        "ê¯ı",
        "ê¯łê¯ħ"
      ],
      [
        "ê¯Ł",
        "ê¯ľ"
      ],
      [
        "ê¯Ł",
        "ê¯ī"
      ],
      [
        "ê¯Ł",
        "ê¯ķê¯ħ"
      ],
      [
        "ê¯Ł",
        "ê¯łê¯ģ"
      ],
      [
        "ê¯Ľ",
        "ê¯Ł"
      ],
      [
        "ê¯Ľ",
        "ê¯ĥ"
      ],
      [
        "ê¯Ľ",
        "ê¯ĳê¯Ĺ"
      ],
      [
        "ê¯Ľ",
        "ê¯ħê¯ķ"
      ],
      [
        "Ġê¯ĥ",
        "ê¯ĳ"
      ],
      [
        "ê¯ĥ",
        "ê¯Ĵ"
      ],
      [
        "ê¯ĳ",
        "ê¯ħ"
      ],
      [
        "ê¯ĳ",
        "ê¯Ħ"
      ],
      [
        "ê¯ĳ",
        "ê¯ŀ"
      ],
      [
        "Ġê¯į",
        "ê¯Į"
      ],
      [
        "Ġê¯į",
        "ê¯Łê¯Ł"
      ],
      [
        "Ġê¯į",
        "ê¯Łê¯ĸ"
      ],
      [
        "Ġê¯ģ",
        "ê¯Ŀ"
      ],
      [
        "Ġê¯ģ",
        "ê¯Łê¯Ĭ"
      ],
      [
        "ê¯¡",
        "ê¯Ĥ"
      ],
      [
        "ê¯¡",
        "ê¯Ĩ"
      ],
      [
        "ê¯¡",
        "ê¯ĥê¯Ľ"
      ],
      [
        "ê¯Į",
        "ê¯Ķ"
      ],
      [
        "ê¯ł",
        "ê¯ķ"
      ],
      [
        "ê¯ł",
        "ê¯ħê¯ķ"
      ],
      [
        "ê¯ĸ",
        "ê¯ł"
      ],
      [
        "ê¯ĸ",
        "ê¯Ķê¯Ĵ"
      ],
      [
        "Ġê¯ĩ",
        "ê¯Ķ"
      ],
      [
        "Ġê¯ĩ",
        "ê¯Ľ"
      ],
      [
        "Ġê¯Ģ",
        "ê¯Łê¯Ł"
      ],
      [
        "Ġê¯Ĥ",
        "ê¯Ŀê¯ķ"
      ],
      [
        "Ġê¯Ĥ",
        "ê¯Ŀê¯Ĳ"
      ],
      [
        "ê¯Ī",
        "ê¯Łê¯Ĺ"
      ],
      [
        "ê¯Ĥ",
        "ê¯Ķ"
      ],
      [
        "ê¯Ĥ",
        "ê¯ŀ"
      ],
      [
        "ê¯Ħ",
        "ê¯ģ"
      ],
      [
        "ê¯¢",
        "ê¯ģ"
      ],
      [
        "ê¯¢",
        "ê¯ĳ"
      ],
      [
        "ê¯¢",
        "ê¯ĩ"
      ],
      [
        "ê¯¢",
        "ê¯Ģ"
      ],
      [
        "ê¯¢",
        "ê¯Ī"
      ],
      [
        "Ġê¯Ī",
        "ê¯ĸ"
      ],
      [
        "Ġê¯Ī",
        "ê¯Łê¯Ĺ"
      ],
      [
        "Ġê¯Ī",
        "ê¯Ķê¯Ĺ"
      ],
      [
        "Ġê¯Ī",
        "ê¯Łê¯ĸê¯Ķ"
      ],
      [
        "Ġê¯ħ",
        "ê¯Ħ"
      ],
      [
        "ê¯İ",
        "ê¯ĳ"
      ],
      [
        "ê¯İ",
        "ê¯Į"
      ],
      [
        "ê¯İ",
        "ê¯ĸ"
      ],
      [
        "ê¯İ",
        "ê¯ĸê¯Ķ"
      ],
      [
        "ê¯İ",
        "ê¯Ķê¯ķ"
      ],
      [
        "ê¯ľ",
        "ê¯ŀ"
      ],
      [
        "ê¯ıê¯ħ",
        "ê¯ģ"
      ],
      [
        "ê¯ıê¯ħ",
        "ê¯Ĵ"
      ],
      [
        "ê¯ī",
        "ê¯ħ"
      ],
      [
        "ê¯ī",
        "ê¯Ĵ"
      ],
      [
        "ê¯ıê¯Ĺ",
        "ê¯ģ"
      ],
      [
        "ê¯ıê¯Ĺ",
        "ê¯Ł"
      ],
      [
        "ê¯ıê¯Ĺ",
        "ê¯ł"
      ],
      [
        "ê¯ŀ",
        "ê¯Ģ"
      ],
      [
        "ê¯ŀ",
        "ê¯Ī"
      ],
      [
        "ê¯Ĳ",
        "ê¯ĩ"
      ],
      [
        "ê¯ıê¯Ķ",
        "ê¯Ľê¯ĳ"
      ],
      [
        "ê¯Ĭ",
        "ê¯ģ"
      ],
      [
        "Ġê¯ı",
        "ê¯Ĺ"
      ],
      [
        "Ġê¯ı",
        "ê¯Ģ"
      ],
      [
        "Ġê¯ı",
        "ê¯ļ"
      ],
      [
        "ê¯Łê¯Ĺ",
        "ê¯ģ"
      ],
      [
        "Ġê¯ĳê¯ĥ",
        "ê¯ĩ"
      ],
      [
        "Ġê¯ĳê¯ĥ",
        "ê¯łê¯ĩ"
      ],
      [
        "ê¯Ľê¯ĳ",
        "ê¯ķê¯ħ"
      ],
      [
        "ê¯Ľê¯ĳ",
        "ê¯Ŀê¯Ĺ"
      ],
      [
        "ê¯ıê¯ķ",
        "ê¯Ģ"
      ],
      [
        "ê¯Ľê¯ĩ",
        "ê¯Ĺ"
      ],
      [
        "ê¯Ķê¯Ĵ",
        "ê¯ħ"
      ],
      [
        "Ġê¯ī",
        "ê¯Ķ"
      ],
      [
        "Ġê¯ī",
        "ê¯Ŀê¯ĸ"
      ],
      [
        "Ġê¯ī",
        "ê¯Ŀê¯į"
      ],
      [
        "ê¯ıê¯Ĵ",
        "ê¯ģ"
      ],
      [
        "Ġê¯Ĺ",
        "ê¯ħ"
      ],
      [
        "Ġê¯Ĺ",
        "ê¯Ķê¯Ģ"
      ],
      [
        "ê¯łê¯ĩ",
        "ê¯ķ"
      ],
      [
        "ê¯¡ê¯Ĺ",
        "ê¯Ĺ"
      ],
      [
        "ê¯Ľê¯Ħ",
        "ê¯Ĵ"
      ],
      [
        "Ġê¯ļ",
        "ê¯Ĥ"
      ],
      [
        "ê¯Ŀê¯ħ",
        "ê¯ķ"
      ],
      [
        "ê¯Ľê¯Ģ",
        "ê¯ħ"
      ],
      [
        "ê¯ĸê¯Ķ",
        "ê¯ħ"
      ],
      [
        "ê¯Łê¯ķ",
        "ê¯Ĵ"
      ],
      [
        "ê¯Łê¯ģ",
        "ê¯Ł"
      ],
      [
        "Ġê¯ĥê¯Ķ",
        "ê¯Ŀ"
      ],
      [
        "Ġê¯İ",
        "ê¯ķ"
      ],
      [
        "Ġê¯İ",
        "ê¯łê¯Ĩ"
      ],
      [
        "ê¯Ķê¯Ľê¯ĳ",
        "ê¯ħ"
      ],
      [
        "Ġê¯Ĩê¯ł",
        "ê¯Ģ"
      ],
      [
        "ê¯Łê¯Ĵ",
        "ê¯Ĺ"
      ],
      [
        "ê¯Łê¯ĸ",
        "ê¯Ĺ"
      ],
      [
        "ê¯Łê¯ĸ",
        "ê¯Ķê¯Ĵ"
      ],
      [
        "ê¯ıê¯ĥ",
        "ê¯Ĺ"
      ],
      [
        "ê¯ıê¯ĥ",
        "ê¯Ľ"
      ],
      [
        "Ġê¯įê¯Łê¯Ĺ",
        "ê¯Ľê¯ĩ"
      ],
      [
        "Ġê¯ĥê¯Ī",
        "ê¯ľ"
      ],
      [
        "ê¯ıê¯Ĳ",
        "ê¯ģ"
      ],
      [
        "Ġê¯ĥê¯ĩê¯Ŀê¯Ĺ",
        "ê¯ģ"
      ],
      [
        "ê¯ĥê¯ħ",
        "ê¯Ŀê¯ĸ"
      ],
      [
        "ê¯Ŀê¯Ħ",
        "ê¯Ķ"
      ],
      [
        "ê¯ıê¯Ī",
        "ê¯łê¯Ĥ"
      ],
      [
        "Ġê¯²ê¯",
        "´"
      ],
      [
        "Ġê¯¢",
        "ê¯Łê¯ģê¯ĩê¯Ĵ"
      ],
      [
        "Ġê¯ıê¯Ł",
        "ê¯Ĳ"
      ],
      [
        "Ġê¯İê¯łê¯Ĥ",
        "ê¯Ľê¯Ģ"
      ],
      [
        "ê¯Ĺê¯ĥê¯Ľ",
        "ê¯ł"
      ],
      [
        "±",
        "ê¯°ê¯°"
      ],
      [
        "ê¯",
        "´"
      ],
      [
        "ê¯",
        "¶"
      ],
      [
        "ê¯",
        "·"
      ],
      [
        "ê¯",
        "Ļ"
      ],
      [
        "ê¯",
        "±ê¯°ê¯°"
      ],
      [
        "Ġê¯",
        "Ļ"
      ],
      [
        "ê¯£",
        "-"
      ],
      [
        "ê¯£",
        "ê¯¤"
      ],
      [
        "ê¯Ķ",
        "ê¯Ķ"
      ],
      [
        "ê¯Ķ",
        "ê¯Ħ"
      ],
      [
        "ê¯Ķ",
        "ê¯Ŀê¯ķ"
      ],
      [
        "ê¯Ķ",
        "ê¯ķê¯Ģ"
      ],
      [
        "ê¯Ķ",
        "ê¯Ŀê¯Ĵ"
      ],
      [
        "ê¯Ķ",
        "ê¯Ľê¯ŀ"
      ],
      [
        "ê¯Ķ",
        "ê¯Ŀê¯į"
      ],
      [
        "ê¯ħ",
        "ê¯ĸ"
      ],
      [
        "ê¯ħ",
        "ê¯į"
      ],
      [
        "ê¯ģ",
        "ê¯ħ"
      ],
      [
        "ê¯ģ",
        "ê¯ķ"
      ],
      [
        "ê¯ģ",
        "ê¯ĥ"
      ],
      [
        "ê¯ģ",
        "ê¯Ĩ"
      ],
      [
        "ê¯ģ",
        "ê¯Łê¯ģ"
      ],
      [
        "ê¯ķ",
        "ê¯Ł"
      ],
      [
        "ê¯ķ",
        "ê¯ĸ"
      ],
      [
        "Ġê¯ĳ",
        "ê¯Į"
      ],
      [
        "Ġê¯ĳ",
        "ê¯ıê¯Ĺ"
      ],
      [
        "Ġê¯ĳ",
        "ê¯Ĭ"
      ],
      [
        "ê¯Ĵ",
        "ê¯Ĺê¯ķ"
      ],
      [
        "ê¯Ĵ",
        "ê¯łê¯Ĩ"
      ],
      [
        "ê¯Ĵ",
        "ê¯łê¯ħ"
      ],
      [
        "ê¯Ĵ",
        "ê¯ľê¯Ĺ"
      ],
      [
        "ê¯Ĵ",
        "ê¯łê¯ŀ"
      ],
      [
        "ê¯Ŀ",
        "ê¯ł"
      ],
      [
        "ê¯ı",
        "ê¯ŀ"
      ],
      [
        "ê¯ı",
        "ê¯Ĭ"
      ],
      [
        "ê¯ı",
        "ê¯Ŀê¯Ĺ"
      ],
      [
        "ê¯ı",
        "ê¯ľê¯Ĵ"
      ],
      [
        "ê¯Ł",
        "ê¯ĥ"
      ],
      [
        "ê¯Ł",
        "ê¯Ģ"
      ],
      [
        "ê¯Ł",
        "ê¯ľê¯Ĥ"
      ],
      [
        "ê¯Ł",
        "ê¯Ķê¯ģ"
      ],
      [
        "ê¯Ń",
        "ê¯¨"
      ],
      [
        "ê¯Ľ",
        "ê¯ı"
      ],
      [
        "Ġê¯ĥ",
        "ê¯Ĺ"
      ],
      [
        "Ġê¯ĥ",
        "ê¯Ĵ"
      ],
      [
        "Ġê¯ĥ",
        "ê¯Ŀ"
      ],
      [
        "Ġê¯ĥ",
        "ê¯ľê¯ĩ"
      ],
      [
        "ê¯ĥ",
        "ê¯ķ"
      ],
      [
        "ê¯ĥ",
        "ê¯ī"
      ],
      [
        "ê¯ĳ",
        "ê¯Į"
      ],
      [
        "ê¯ĳ",
        "ê¯Ĥ"
      ],
      [
        "ê¯ĳ",
        "ê¯Ĩ"
      ],
      [
        "ê¯ĳ",
        "ê¯ĭ"
      ],
      [
        "ê¯ĩ",
        "ê¯ģ"
      ],
      [
        "ê¯ĩ",
        "ê¯ķê¯ħ"
      ],
      [
        "Ġê¯į",
        "ê¯Łê¯ħ"
      ],
      [
        "Ġê¯į",
        "ê¯Łê¯Ĥ"
      ],
      [
        "Ġê¯į",
        "ê¯ľê¯Ĥ"
      ],
      [
        "Ġê¯į",
        "ê¯ľê¯Ĥê¯Ĵ"
      ],
      [
        "Ġê¯į",
        "ê¯Łê¯Ĭ"
      ],
      [
        "Ġê¯ģ",
        "ê¯ħ"
      ],
      [
        "Ġê¯ģ",
        "ê¯ķ"
      ],
      [
        "Ġê¯ģ",
        "ê¯Ľ"
      ],
      [
        "Ġê¯ģ",
        "ê¯ĩ"
      ],
      [
        "Ġê¯ģ",
        "ê¯Ŀê¯ķ"
      ],
      [
        "Ġê¯ģ",
        "ê¯Ŀê¯ħ"
      ],
      [
        "ê¯¡",
        "ê¯ĳê¯ŀ"
      ],
      [
        "ê¯Ģ",
        "ê¯Ĵ"
      ],
      [
        "ê¯Ģ",
        "ê¯ľ"
      ],
      [
        "ê¯ł",
        "ê¯Ķ"
      ],
      [
        "ê¯ł",
        "ê¯Ĳ"
      ],
      [
        "ê¯ĸ",
        "ê¯Ī"
      ],
      [
        "ê¯ĸ",
        "ê¯ķê¯Ĺ"
      ],
      [
        "Ġê¯ĩ",
        "ê¯ģ"
      ],
      [
        "Ġê¯ĩ",
        "ê¯Ĵ"
      ],
      [
        "Ġê¯Ģ",
        "ê¯Ĺ"
      ],
      [
        "Ġê¯Ĥ",
        "ê¯Ł"
      ],
      [
        "ê¯Ī",
        "ê¯łê¯Ĥ"
      ],
      [
        "ê¯Ī",
        "ê¯Łê¯ĸ"
      ],
      [
        "ê¯Ī",
        "ê¯ľê¯Ĺ"
      ],
      [
        "ê¯Ī",
        "ê¯Ľê¯ĩê¯ħ"
      ],
      [
        "ê¯Ĥ",
        "ê¯ķ"
      ],
      [
        "ê¯Ħ",
        "ê¯ģê¯Ł"
      ],
      [
        "ê¯¢",
        "ê¯Ķê¯Ĵ"
      ],
      [
        "ê¯¢",
        "ê¯ļ"
      ],
      [
        "Ġê¯Ī",
        "ê¯Ķê¯ģ"
      ],
      [
        "Ġê¯Ī",
        "ê¯Łê¯Ĵ"
      ],
      [
        "Ġê¯Ī",
        "ê¯Łê¯ķê¯Ĺ"
      ],
      [
        "Ġê¯ħ",
        "ê¯ĩ"
      ],
      [
        "Ġê¯ħ",
        "ê¯Ŀê¯ħ"
      ],
      [
        "Ġê¯ħ",
        "ê¯Ŀê¯ĥ"
      ],
      [
        "Ġê¯ħ",
        "ê¯Ŀê¯Ĵ"
      ],
      [
        "ê¯į",
        "ê¯Łê¯ħ"
      ],
      [
        "ê¯į",
        "ê¯Łê¯Ĥ"
      ],
      [
        "Ġê¯Ĩ",
        "ê¯Ķ"
      ],
      [
        "Ġê¯Ĩ",
        "ê¯ŀ"
      ],
      [
        "Ġê¯Ĩ",
        "ê¯ŀê¯ĩ"
      ],
      [
        "Ġê¯Ħ",
        "ê¯Ĥ"
      ],
      [
        "Ġê¯Ħ",
        "ê¯Ŀê¯Ĺ"
      ],
      [
        "ê¯İ",
        "ê¯¢"
      ],
      [
        "ê¯İ",
        "ê¯ķê¯Ĺ"
      ],
      [
        "ê¯İ",
        "ê¯Ĺê¯ķ"
      ],
      [
        "ê¯İ",
        "ê¯Ķê¯Ľê¯ĳ"
      ],
      [
        "ê¯İ",
        "ê¯ħê¯ķ"
      ],
      [
        "ê¯İ",
        "ê¯Ķê¯Ĵê¯Ĺ"
      ],
      [
        "ê¯ľ",
        "ê¯į"
      ],
      [
        "ê¯ľ",
        "ê¯ļ"
      ],
      [
        "ê¯ľ",
        "ê¯Ĺê¯Ĵ"
      ],
      [
        "Ġê¯Ĭ",
        "ê¯ķ"
      ],
      [
        "Ġê¯Ĭ",
        "ê¯Ľê¯Ħê¯Ĺ"
      ],
      [
        "Ġê¯Ĭ",
        "ê¯Ŀê¯Ĵê¯ħ"
      ],
      [
        "Ġê¯Ĭ",
        "ê¯Ľê¯Ģê¯Ĺ"
      ],
      [
        "ê¯ıê¯ħ",
        "ê¯ħ"
      ],
      [
        "ê¯ıê¯ħ",
        "ê¯ķ"
      ],
      [
        "ê¯ıê¯ħ",
        "ê¯Ģ"
      ],
      [
        "ê¯ıê¯ħ",
        "ê¯ķê¯Ĺ"
      ],
      [
        "ê¯ī",
        "ê¯Ĺ"
      ],
      [
        "ê¯ī",
        "ê¯Ľ"
      ],
      [
        "ê¯ī",
        "ê¯Ģ"
      ],
      [
        "ê¯ī",
        "ê¯Ľê¯ĳ"
      ],
      [
        "ê¯ī",
        "ê¯Ŀê¯Ĺ"
      ],
      [
        "Ġê¯Ĳ",
        "ê¯Ŀ"
      ],
      [
        "Ġê¯Ĳ",
        "ê¯ĸê¯ķ"
      ],
      [
        "Ġê¯Ĳ",
        "ê¯ĸê¯Ķê¯ħ"
      ],
      [
        "ê¯ıê¯Ĺ",
        "ê¯Ķ"
      ],
      [
        "ê¯ıê¯Ĺ",
        "ê¯ĩ"
      ],
      [
        "ê¯ıê¯Ĺ",
        "ê¯ķê¯Ĺ"
      ],
      [
        "ê¯ıê¯Ĺ",
        "ê¯ĩê¯Ĵ"
      ],
      [
        "ê¯ŀ",
        "ê¯Ĥ"
      ],
      [
        "ê¯ŀ",
        "ê¯Ĭ"
      ],
      [
        "ê¯ŀ",
        "ê¯Ĳê¯Ŀ"
      ],
      [
        "ê¯ŀ",
        "ê¯Ģê¯ħ"
      ],
      [
        "ê¯Ĳ",
        "ê¯Ł"
      ],
      [
        "ê¯Ĳ",
        "ê¯ĸ"
      ],
      [
        "ê¯Ĳ",
        "ê¯Ŀê¯Ĺ"
      ],
      [
        "ê¯Ĳ",
        "ê¯ĸê¯Ł"
      ],
      [
        "ê¯ıê¯Ķ",
        "ê¯ŀ"
      ],
      [
        "ê¯ıê¯Ķ",
        "ê¯ķê¯Ĺ"
      ],
      [
        "ê¯Ŀê¯ķ",
        "ê¯Łê¯Ĺ"
      ],
      [
        "Ġê¯ı",
        "ê¯Į"
      ],
      [
        "Ġê¯ı",
        "ê¯Ĭ"
      ],
      [
        "Ġê¯ı",
        "ê¯Ŀê¯Ĳ"
      ],
      [
        "ê¯Łê¯Ĺ",
        "ê¯Ł"
      ],
      [
        "ê¯Łê¯ħ",
        "ê¯Ĭ"
      ],
      [
        "ê¯Łê¯ħ",
        "ê¯ĸê¯ķ"
      ],
      [
        "ê¯Łê¯ħ",
        "ê¯Ķê¯Ŀê¯ĥ"
      ],
      [
        "Ġê¯ĳê¯ĥ",
        "ê¯Ķ"
      ],
      [
        "Ġê¯ĳê¯ĥ",
        "ê¯Ŀ"
      ],
      [
        "Ġê¯ĳê¯ĥ",
        "ê¯Ĺê¯Ĵ"
      ],
      [
        "ê¯ĭ",
        "ê¯Ķ"
      ],
      [
        "ê¯Ľê¯ĳ",
        "ê¯Ŀê¯ĥ"
      ],
      [
        "ê¯Ľê¯ĩ",
        "ê¯Ķ"
      ],
      [
        "ê¯Ŀê¯Ĺ",
        "ê¯Ģ"
      ],
      [
        "ê¯Ŀê¯Ĺ",
        "ê¯ķê¯Ĺ"
      ],
      [
        "ê¯Ķê¯Ĵ",
        "ê¯Ł"
      ],
      [
        "ê¯Ķê¯Ĵ",
        "ê¯Ģ"
      ],
      [
        "Ġê¯ī",
        "ê¯Ŀê¯Ī"
      ],
      [
        "ê¯ıê¯Ĵ",
        "ê¯Ĺê¯ķê¯ħ"
      ],
      [
        "Ġê¯Ĺ",
        "ê¯Ł"
      ],
      [
        "Ġê¯Ĺ",
        "ê¯Ľ"
      ],
      [
        "Ġê¯Ĺ",
        "ê¯ĥê¯Ľê¯ĩ"
      ],
      [
        "ê¯łê¯ĩ",
        "ê¯Ł"
      ],
      [
        "ê¯¡ê¯ī",
        "ê¯ĳ"
      ],
      [
        "ê¯¡ê¯ī",
        "ê¯ķê¯ħ"
      ],
      [
        "ê¯ıê¯Ł",
        "ê¯ĩ"
      ],
      [
        "ê¯ıê¯Ł",
        "ê¯ĸ"
      ],
      [
        "ê¯¡ê¯Ĺ",
        "ê¯ħ"
      ],
      [
        "ê¯¡ê¯Ĺ",
        "ê¯ģ"
      ],
      [
        "ê¯¡ê¯Ĺ",
        "ê¯ķ"
      ],
      [
        "Ġê¯ķ",
        "ê¯ĩ"
      ],
      [
        "ê¯ıê¯ģ",
        "ê¯ħ"
      ],
      [
        "ê¯Ŀê¯ħ",
        "ê¯Ĺ"
      ],
      [
        "ê¯łê¯Ĥ",
        "ê¯Ľê¯ĳê¯Ĵ"
      ],
      [
        "ê¯Ŀê¯ĥ",
        "ê¯ķê¯ħ"
      ],
      [
        "ê¯Łê¯Ĥ",
        "ê¯ħ"
      ],
      [
        "ê¯ľê¯Ĥ",
        "ê¯ģ"
      ],
      [
        "ê¯ľê¯Ĥ",
        "ê¯Ŀê¯ĥ"
      ],
      [
        "ê¯Ľê¯ģ",
        "ê¯Ģ"
      ],
      [
        "ê¯Ľê¯ģ",
        "ê¯Łê¯ģ"
      ],
      [
        "Ġê¯ĳê¯Ŀ",
        "ê¯ģ"
      ],
      [
        "Ġê¯ĳê¯Ŀ",
        "ê¯Ĳ"
      ],
      [
        "ê¯¡ê¯ķ",
        "ê¯Ĵ"
      ],
      [
        "ê¯¡ê¯Ĵ",
        "ê¯Ĺê¯ķ"
      ],
      [
        "Ġê¯ĥê¯Ķ",
        "ê¯Ľê¯ĩ"
      ],
      [
        "Ġê¯İ",
        "ê¯Ĺ"
      ],
      [
        "Ġê¯İ",
        "ê¯Ķ"
      ],
      [
        "Ġê¯İ",
        "ê¯Ķê¯ķ"
      ],
      [
        "Ġê¯İ",
        "ê¯łê¯Ģ"
      ],
      [
        "Ġê¯İ",
        "ê¯ħê¯Ķê¯Ĵ"
      ],
      [
        "Ġê¯Ķ",
        "ê¯ħ"
      ],
      [
        "Ġê¯Ĩê¯ł",
        "ê¯ħ"
      ],
      [
        "Ġê¯Ĩê¯ł",
        "ê¯ģ"
      ],
      [
        "Ġê¯Ĩê¯ł",
        "ê¯ħê¯ķ"
      ],
      [
        "Ġê¯Ĩê¯ł",
        "ê¯ħê¯Ķ"
      ],
      [
        "Ġê¯Ĩê¯ł",
        "ê¯Ģê¯ħ"
      ],
      [
        "Ġê¯ĳê¯į",
        "ê¯Ł"
      ],
      [
        "Ġê¯ĳê¯į",
        "ê¯Łê¯ħ"
      ],
      [
        "ê¯ħê¯ķ",
        "ê¯ģ"
      ],
      [
        "ê¯ŀê¯Ħ",
        "ê¯Ĵ"
      ],
      [
        "ê¯Łê¯ĸ",
        "ê¯Ī"
      ],
      [
        "ê¯Ķê¯Ĺ",
        "ê¯ķê¯ħ"
      ],
      [
        "Ġê¯ıê¯Ĩ",
        "ê¯Łê¯ħ"
      ],
      [
        "ê¯ıê¯Ķê¯Ĵ",
        "ê¯Ł"
      ],
      [
        "ê¯Ŀê¯ĸ",
        "ê¯Ĵ"
      ],
      [
        "ê¯ıê¯ĸ",
        "ê¯ħ"
      ],
      [
        "ê¯łê¯Ħ",
        "ê¯Ĺ"
      ],
      [
        "ê¯łê¯Ħ",
        "ê¯ħ"
      ],
      [
        "ê¯łê¯Ħ",
        "ê¯ģ"
      ],
      [
        "ê¯łê¯Ħ",
        "ê¯Ĵ"
      ],
      [
        "ê¯ģê¯ĩ",
        "ê¯Ĺ"
      ],
      [
        "Ġê¯ĳê¯ī",
        "ê¯Ŀ"
      ],
      [
        "ê¯¢ê¯ħ",
        "ê¯Ĵ"
      ],
      [
        "Ġê¯ħê¯Ŀê¯ķ",
        "ê¯Ķê¯Ĺ"
      ],
      [
        "Ġê¯Ĳê¯ĸ",
        "ê¯Łê¯Ł"
      ],
      [
        "ê¯ĥê¯ħ",
        "ê¯Ŀê¯ģ"
      ],
      [
        "ê¯Ľê¯Ĩ",
        "ê¯Ķ"
      ],
      [
        "ê¯Ľê¯Ĩ",
        "ê¯į"
      ],
      [
        "Ġê¯ĥê¯ģ",
        "ê¯Ľ"
      ],
      [
        "ê¯¢ê¯Ĺ",
        "ê¯Ĺ"
      ],
      [
        "Ġê¯ĥê¯Ĭ",
        "ê¯Łê¯ĩ"
      ],
      [
        "ê¯¡ê¯ĥ",
        "ê¯Łê¯Ĺê¯ħ"
      ],
      [
        "ê¯Łê¯ĸê¯Ķ",
        "ê¯Ľê¯Ģ"
      ],
      [
        "ê¯Ķê¯Ľê¯Ħ",
        "ê¯ģ"
      ],
      [
        "ê¯ħê¯Ķ",
        "ê¯Ŀê¯ķ"
      ],
      [
        "ê¯¡ê¯Ī",
        "ê¯łê¯Ĥ"
      ],
      [
        "ê¯Ĵê¯łê¯Ĥ",
        "ê¯Ľê¯Ħ"
      ],
      [
        "ê¯Ĵê¯łê¯Ĥ",
        "ê¯Ľê¯Ģê¯Ĺ"
      ],
      [
        "ê¯ıê¯Ĺê¯ħ",
        "ê¯Ģ"
      ],
      [
        "ê¯łê¯Ĩê¯Ķ",
        "ê¯Ľê¯Ģ"
      ],
      [
        "Ġê¯Ĩê¯łê¯ĩ",
        "ê¯ħê¯ķ"
      ],
      [
        "ê¯Ŀê¯ĥê¯Ĵ",
        "ê¯Ĺ"
      ],
      [
        "ê¯Ŀê¯Ĳ",
        "ê¯Ŀê¯Ĺ"
      ],
      [
        "ê¯Ģê¯Ķ",
        "ê¯Ŀê¯ķ"
      ],
      [
        "Ġê¯²ê¯",
        "¶"
      ],
      [
        "Ġê¯²ê¯",
        "¸"
      ],
      [
        "Ġê¯±",
        "ê¯°"
      ],
      [
        "ê¯Ŀê¯į",
        "ê¯Łê¯ķ"
      ],
      [
        "Ġê¯Īê¯Ľê¯ĩ",
        "ê¯Ĺ"
      ],
      [
        "Ġê¯Ĩê¯łê¯Ħ",
        "ê¯Ĵ"
      ],
      [
        "ê¯įê¯Łê¯Ĺ",
        "ê¯Ľê¯Ģ"
      ],
      [
        "ê¯Łê¯ħê¯Ĵ",
        "ê¯Ĺê¯ķ"
      ],
      [
        "Ġê¯īê¯Ŀê¯Ĺ",
        "ê¯ķ"
      ],
      [
        "ê¯ĥê¯Ī",
        "ê¯ľ"
      ],
      [
        "ê¯İê¯į",
        "ê¯Łê¯Ĥê¯Ľê¯ĳ"
      ],
      [
        "ê¯ľê¯Ĥê¯Ľê¯ĳ",
        "ê¯ħ"
      ],
      [
        "ê¯ĥê¯Ľê¯ĩ",
        "ê¯ķê¯ħ"
      ],
      [
        "ê¯Ģê¯Łê¯Ĺ",
        "ê¯Ł"
      ],
      [
        "ê¯Ħê¯ŀ",
        "ê¯Ĵ"
      ],
      [
        "ê¯Ľê¯İ",
        "ê¯Ķê¯Ĵ"
      ],
      [
        "ê¯įê¯Łê¯Ĵ",
        "ê¯ħ"
      ],
      [
        "Ġê¯įê¯Łê¯ĸ",
        "ê¯ķê¯Ŀ"
      ],
      [
        "Ġê¯ģê¯Ŀ",
        "ê¯ĭ"
      ]
    ]
  }
}