{
  ",": 5,
  "-": 6,
  ":": 7,
  "</s>": 2,
  "<mask>": 4,
  "<pad>": 1,
  "<s>": 0,
  "<unk>": 3,
  "f": 8,
  "¡": 9,
  "¢": 10,
  "£": 11,
  "¤": 12,
  "¥": 13,
  "¦": 14,
  "§": 15,
  "¨": 16,
  "©": 17,
  "ª": 18,
  "«": 19,
  "¯": 20,
  "°": 21,
  "±": 22,
  "±ê¯°ê¯°": 757,
  "²": 23,
  "³": 24,
  "´": 25,
  "µ": 26,
  "¶": 27,
  "·": 28,
  "¸": 29,
  "¹": 30,
  "ê": 31,
  "ê¯": 67,
  "ê¯¡": 96,
  "ê¯¡ê¯Ģ": 564,
  "ê¯¡ê¯ģ": 167,
  "ê¯¡ê¯Ĥ": 664,
  "ê¯¡ê¯ĥ": 271,
  "ê¯¡ê¯ĥê¯Ľ": 666,
  "ê¯¡ê¯ĥê¯Łê¯Ĺê¯ħ": 978,
  "ê¯¡ê¯ħ": 377,
  "ê¯¡ê¯Ĩ": 665,
  "ê¯¡ê¯ĩ": 405,
  "ê¯¡ê¯Ī": 296,
  "ê¯¡ê¯Īê¯łê¯Ĥ": 982,
  "ê¯¡ê¯ī": 154,
  "ê¯¡ê¯īê¯ģ": 366,
  "ê¯¡ê¯īê¯ĳ": 920,
  "ê¯¡ê¯īê¯Ĵ": 514,
  "ê¯¡ê¯īê¯ķê¯ħ": 921,
  "ê¯¡ê¯Ĭ": 406,
  "ê¯¡ê¯į": 565,
  "ê¯¡ê¯ĳê¯ŀ": 824,
  "ê¯¡ê¯Ĵ": 179,
  "ê¯¡ê¯Ĵê¯Ĺê¯ķ": 940,
  "ê¯¡ê¯ķ": 178,
  "ê¯¡ê¯ķê¯ģ": 368,
  "ê¯¡ê¯ķê¯ħ": 566,
  "ê¯¡ê¯ķê¯Ĵ": 939,
  "ê¯¡ê¯ķê¯Ĺ": 345,
  "ê¯¡ê¯ĸ": 309,
  "ê¯¡ê¯Ĺ": 156,
  "ê¯¡ê¯Ĺê¯ģ": 925,
  "ê¯¡ê¯Ĺê¯ħ": 924,
  "ê¯¡ê¯Ĺê¯Ĵ": 455,
  "ê¯¡ê¯Ĺê¯ķ": 926,
  "ê¯¡ê¯Ĺê¯Ĺ": 727,
  "ê¯¡ê¯Ł": 344,
  "ê¯¢": 110,
  "ê¯¢ê¯Ģ": 684,
  "ê¯¢ê¯ģ": 681,
  "ê¯¢ê¯ħ": 233,
  "ê¯¢ê¯ħê¯Ĵ": 969,
  "ê¯¢ê¯ĩ": 683,
  "ê¯¢ê¯Ī": 685,
  "ê¯¢ê¯Ĳ": 273,
  "ê¯¢ê¯ĳ": 682,
  "ê¯¢ê¯Ĵ": 310,
  "ê¯¢ê¯Ķ": 574,
  "ê¯¢ê¯Ķê¯Ĵ": 841,
  "ê¯¢ê¯ķ": 575,
  "ê¯¢ê¯Ĺ": 261,
  "ê¯¢ê¯Ĺê¯Ĺ": 976,
  "ê¯¢ê¯ļ": 842,
  "ê¯¢ê¯Ł": 288,
  "ê¯¢ê¯Łê¯ģê¯ĩê¯Ĵ": 488,
  "ê¯£": 73,
  "ê¯£,": 221,
  "ê¯£-": 764,
  "ê¯£ê¯¤": 765,
  "ê¯£ê¯«": 140,
  "ê¯¤": 69,
  "ê¯¤,": 256,
  "ê¯¤-": 464,
  "ê¯¤ê¯«": 148,
  "ê¯¥": 70,
  "ê¯¥,": 334,
  "ê¯¥-": 349,
  "ê¯¥ê¯¥": 622,
  "ê¯¥ê¯«": 173,
  "ê¯¥ê¯Ń": 538,
  "ê¯¦": 72,
  "ê¯¦,": 188,
  "ê¯¦-": 466,
  "ê¯¦ê¯«": 123,
  "ê¯§": 100,
  "ê¯¨": 74,
  "ê¯¨,": 541,
  "ê¯¨ê¯¨": 336,
  "ê¯¨ê¯«": 275,
  "ê¯¨ê¯Ń": 625,
  "ê¯©": 86,
  "ê¯©,": 552,
  "ê¯©-": 323,
  "ê¯©ê¯«": 358,
  "ê¯ª": 122,
  "ê¯ªê¯«": 499,
  "ê¯«": 88,
  "ê¯°": 216,
  "ê¯°ê¯°": 348,
  "ê¯±ê¯°ê¯°": 762,
  "ê¯²": 533,
  "ê¯³": 317,
  "ê¯³ê¯°": 532,
  "ê¯´": 758,
  "ê¯µ": 534,
  "ê¯¶": 759,
  "ê¯·": 760,
  "ê¯Ģ": 97,
  "ê¯Ģê¯Ĥ": 407,
  "ê¯Ģê¯ĥ": 346,
  "ê¯Ģê¯ħ": 378,
  "ê¯Ģê¯Ĵ": 825,
  "ê¯Ģê¯Ķ": 361,
  "ê¯Ģê¯Ķê¯Ŀê¯ķ": 990,
  "ê¯Ģê¯ľ": 826,
  "ê¯Ģê¯Ł": 485,
  "ê¯Ģê¯Łê¯Ĺ": 486,
  "ê¯Ģê¯Łê¯Ĺê¯Ł": 1004,
  "ê¯ģ": 78,
  "ê¯ģê¯Ģ": 277,
  "ê¯ģê¯ģ": 338,
  "ê¯ģê¯ĥ": 777,
  "ê¯ģê¯Ħ": 319,
  "ê¯ģê¯ħ": 775,
  "ê¯ģê¯Ĩ": 778,
  "ê¯ģê¯ĩ": 222,
  "ê¯ģê¯ĩê¯Ĺ": 967,
  "ê¯ģê¯ĭ": 632,
  "ê¯ģê¯ķ": 776,
  "ê¯ģê¯Ł": 266,
  "ê¯ģê¯Łê¯ģ": 779,
  "ê¯ģê¯ł": 470,
  "ê¯Ĥ": 107,
  "ê¯Ĥê¯Ķ": 678,
  "ê¯Ĥê¯ķ": 839,
  "ê¯Ĥê¯ŀ": 679,
  "ê¯ĥ": 91,
  "ê¯ĥê¯ģ": 403,
  "ê¯ĥê¯ĥ": 404,
  "ê¯ĥê¯Ħ": 558,
  "ê¯ĥê¯ħ": 252,
  "ê¯ĥê¯ħê¯Ŀê¯ģ": 972,
  "ê¯ĥê¯ħê¯Ŀê¯ĸ": 749,
  "ê¯ĥê¯Ĩ": 481,
  "ê¯ĥê¯ĩ": 557,
  "ê¯ĥê¯Ī": 438,
  "ê¯ĥê¯Īê¯ľ": 1000,
  "ê¯ĥê¯ī": 806,
  "ê¯ĥê¯Ĭ": 560,
  "ê¯ĥê¯Į": 206,
  "ê¯ĥê¯į": 340,
  "ê¯ĥê¯ıê¯ħ": 559,
  "ê¯ĥê¯Ĵ": 655,
  "ê¯ĥê¯Ķ": 437,
  "ê¯ĥê¯ķ": 805,
  "ê¯ĥê¯Ĺ": 325,
  "ê¯ĥê¯Ľ": 242,
  "ê¯ĥê¯Ľê¯ĩ": 482,
  "ê¯ĥê¯Ľê¯ĩê¯ķê¯ħ": 1003,
  "ê¯ĥê¯Ł": 556,
  "ê¯Ħ": 109,
  "ê¯Ħê¯ģ": 680,
  "ê¯Ħê¯ģê¯Ł": 840,
  "ê¯Ħê¯ŀ": 487,
  "ê¯Ħê¯ŀê¯Ĵ": 1005,
  "ê¯ħ": 76,
  "ê¯ħê¯Ģ": 397,
  "ê¯ħê¯ģ": 430,
  "ê¯ħê¯ħ": 468,
  "ê¯ħê¯Ī": 629,
  "ê¯ħê¯į": 774,
  "ê¯ħê¯Ķ": 294,
  "ê¯ħê¯Ķê¯ģ": 546,
  "ê¯ħê¯Ķê¯Ĵ": 630,
  "ê¯ħê¯Ķê¯Ŀê¯ķ": 981,
  "ê¯ħê¯ķ": 199,
  "ê¯ħê¯ķê¯Ģ": 631,
  "ê¯ħê¯ķê¯ģ": 955,
  "ê¯ħê¯ķê¯ħ": 545,
  "ê¯ħê¯ķê¯Ĵ": 525,
  "ê¯ħê¯ĸ": 773,
  "ê¯ħê¯Ĺ": 337,
  "ê¯ħê¯ł": 544,
  "ê¯ħê¯łê¯ĩ": 469,
  "ê¯Ĩ": 126,
  "ê¯ĩ": 93,
  "ê¯ĩê¯¡": 441,
  "ê¯ĩê¯ģ": 811,
  "ê¯ĩê¯ħ": 440,
  "ê¯ĩê¯Ĵ": 343,
  "ê¯ĩê¯ķ": 562,
  "ê¯ĩê¯ķê¯ħ": 812,
  "ê¯Ī": 105,
  "ê¯Īê¯Ķ": 410,
  "ê¯Īê¯Ľê¯ĩê¯ħ": 838,
  "ê¯Īê¯ľ": 570,
  "ê¯Īê¯ľê¯ģ": 572,
  "ê¯Īê¯ľê¯Ĺ": 837,
  "ê¯Īê¯Łê¯ĸ": 836,
  "ê¯Īê¯Łê¯Ĺ": 677,
  "ê¯Īê¯łê¯Ĥ": 835,
  "ê¯Īê¯łê¯Ĩ": 571,
  "ê¯ī": 121,
  "ê¯īê¯Ģ": 876,
  "ê¯īê¯ģ": 328,
  "ê¯īê¯ħ": 699,
  "ê¯īê¯Ĵ": 700,
  "ê¯īê¯Ĺ": 874,
  "ê¯īê¯Ľ": 875,
  "ê¯īê¯Ľê¯ĳ": 877,
  "ê¯īê¯Ŀê¯Ĺ": 878,
  "ê¯Ĭ": 132,
  "ê¯Ĭê¯ģ": 708,
  "ê¯Ĭê¯ĸê¯Ķ": 589,
  "ê¯Ĭê¯ĸê¯ķ": 291,
  "ê¯ĭ": 138,
  "ê¯ĭê¯Ķ": 907,
  "ê¯Į": 98,
  "ê¯Įê¯Ķ": 667,
  "ê¯į": 113,
  "ê¯įê¯ľê¯Ĥ": 577,
  "ê¯įê¯Łê¯Ĥ": 851,
  "ê¯įê¯Łê¯ħ": 850,
  "ê¯įê¯Łê¯Ĵ": 578,
  "ê¯įê¯Łê¯Ĵê¯ħ": 1007,
  "ê¯įê¯Łê¯Ĺ": 411,
  "ê¯įê¯Łê¯Ĺê¯Ľê¯Ģ": 997,
  "ê¯İ": 117,
  "ê¯İê¯¢": 857,
  "ê¯İê¯ģ": 300,
  "ê¯İê¯Ħ": 414,
  "ê¯İê¯ħ": 413,
  "ê¯İê¯ħê¯ķ": 861,
  "ê¯İê¯Ī": 491,
  "ê¯İê¯ĭ": 262,
  "ê¯İê¯Į": 692,
  "ê¯İê¯į": 445,
  "ê¯İê¯įê¯Łê¯Ĥê¯Ľê¯ĳ": 1001,
  "ê¯İê¯ĳ": 691,
  "ê¯İê¯Ĵ": 444,
  "ê¯İê¯Ķ": 282,
  "ê¯İê¯Ķê¯Ĵê¯Ĺ": 862,
  "ê¯İê¯Ķê¯ķ": 695,
  "ê¯İê¯Ķê¯Ľê¯ĳ": 860,
  "ê¯İê¯ķ": 212,
  "ê¯İê¯ķê¯ħ": 579,
  "ê¯İê¯ķê¯Ĺ": 858,
  "ê¯İê¯ĸ": 693,
  "ê¯İê¯ĸê¯Ķ": 694,
  "ê¯İê¯Ĺ": 229,
  "ê¯İê¯Ĺê¯ķ": 859,
  "ê¯İê¯Ł": 290,
  "ê¯İê¯Łê¯ģ": 493,
  "ê¯İê¯Łê¯Ĺ": 492,
  "ê¯ı": 83,
  "ê¯ıê¯Ģ": 339,
  "ê¯ıê¯ģ": 158,
  "ê¯ıê¯ģê¯ħ": 928,
  "ê¯ıê¯ĥ": 218,
  "ê¯ıê¯ĥê¯Ĺ": 743,
  "ê¯ıê¯ĥê¯Ľ": 744,
  "ê¯ıê¯Ħ": 550,
  "ê¯ıê¯ħ": 120,
  "ê¯ıê¯ħê¯Ģ": 872,
  "ê¯ıê¯ħê¯ģ": 697,
  "ê¯ıê¯ħê¯ĥê¯Ľ": 498,
  "ê¯ıê¯ħê¯ħ": 870,
  "ê¯ıê¯ħê¯Ĵ": 698,
  "ê¯ıê¯ħê¯ķ": 871,
  "ê¯ıê¯ħê¯ķê¯Ĺ": 873,
  "ê¯ıê¯ħê¯Ĺ": 447,
  "ê¯ıê¯Ĩ": 295,
  "ê¯ıê¯ĩ": 185,
  "ê¯ıê¯ĩê¯Ķ": 304,
  "ê¯ıê¯ĩê¯ķ": 606,
  "ê¯ıê¯Ī": 268,
  "ê¯ıê¯Īê¯łê¯Ĥ": 751,
  "ê¯ıê¯Ĭ": 792,
  "ê¯ıê¯Į": 235,
  "ê¯ıê¯į": 278,
  "ê¯ıê¯Ĳ": 247,
  "ê¯ıê¯Ĳê¯ģ": 747,
  "ê¯ıê¯ĳ": 642,
  "ê¯ıê¯Ĵ": 147,
  "ê¯ıê¯Ĵê¯ģ": 723,
  "ê¯ıê¯Ĵê¯Ĺê¯ķê¯ħ": 915,
  "ê¯ıê¯Ķ": 129,
  "ê¯ıê¯Ķê¯ģ": 418,
  "ê¯ıê¯Ķê¯ħ": 504,
  "ê¯ıê¯Ķê¯Ĵ": 215,
  "ê¯ıê¯Ķê¯Ĵê¯ģ": 611,
  "ê¯ıê¯Ķê¯Ĵê¯ħ": 610,
  "ê¯ıê¯Ķê¯Ĵê¯Ĺ": 462,
  "ê¯ıê¯Ķê¯Ĵê¯Ł": 960,
  "ê¯ıê¯Ķê¯ķ": 383,
  "ê¯ıê¯Ķê¯ķê¯ħ": 505,
  "ê¯ıê¯Ķê¯ķê¯Ĺ": 895,
  "ê¯ıê¯Ķê¯Ĺ": 449,
  "ê¯ıê¯Ķê¯Ľê¯ĳ": 707,
  "ê¯ıê¯Ķê¯Ľê¯ŀ": 587,
  "ê¯ıê¯Ķê¯Ŀê¯ĥ": 586,
  "ê¯ıê¯Ķê¯ŀ": 894,
  "ê¯ıê¯ķ": 142,
  "ê¯ıê¯ķê¯Ģ": 717,
  "ê¯ıê¯ķê¯ģ": 386,
  "ê¯ıê¯ķê¯ħ": 321,
  "ê¯ıê¯ķê¯Ĵ": 314,
  "ê¯ıê¯ķê¯Ĺ": 211,
  "ê¯ıê¯ĸ": 219,
  "ê¯ıê¯ĸê¯ħ": 962,
  "ê¯ıê¯ĸê¯Ĵ": 527,
  "ê¯ıê¯ĸê¯Ķ": 284,
  "ê¯ıê¯Ĺ": 125,
  "ê¯ıê¯Ĺê¯ģ": 701,
  "ê¯ıê¯Ĺê¯ħ": 311,
  "ê¯ıê¯Ĺê¯ħê¯Ģ": 985,
  "ê¯ıê¯Ĺê¯ħê¯ķ": 585,
  "ê¯ıê¯Ĺê¯ĩ": 883,
  "ê¯ıê¯Ĺê¯ĩê¯Ĵ": 885,
  "ê¯ıê¯Ĺê¯Ĵ": 382,
  "ê¯ıê¯Ĺê¯Ķ": 882,
  "ê¯ıê¯Ĺê¯ķ": 502,
  "ê¯ıê¯Ĺê¯ķê¯Ĺ": 884,
  "ê¯ıê¯Ĺê¯Ĺ": 501,
  "ê¯ıê¯Ĺê¯Ł": 702,
  "ê¯ıê¯Ĺê¯ł": 703,
  "ê¯ıê¯ļ": 644,
  "ê¯ıê¯ľê¯Ĵ": 794,
  "ê¯ıê¯Ŀ": 475,
  "ê¯ıê¯Ŀê¯Ĺ": 793,
  "ê¯ıê¯ŀ": 791,
  "ê¯ıê¯ŀê¯ĩ": 476,
  "ê¯ıê¯Ł": 155,
  "ê¯ıê¯Łê¯ħ": 643,
  "ê¯ıê¯Łê¯ĩ": 922,
  "ê¯ıê¯Łê¯ĸ": 923,
  "ê¯ıê¯Łê¯Ł": 387,
  "ê¯ıê¯ł": 434,
  "ê¯ıê¯łê¯ģ": 551,
  "ê¯ıê¯łê¯ħ": 645,
  "ê¯Ĳ": 128,
  "ê¯Ĳê¯ĩ": 706,
  "ê¯Ĳê¯ķ": 417,
  "ê¯Ĳê¯ĸ": 891,
  "ê¯Ĳê¯ĸê¯Ł": 893,
  "ê¯Ĳê¯Ŀ": 329,
  "ê¯Ĳê¯Ŀê¯Ĺ": 892,
  "ê¯Ĳê¯Ł": 890,
  "ê¯ĳ": 92,
  "ê¯ĳê¯ģ": 341,
  "ê¯ĳê¯Ĥ": 808,
  "ê¯ĳê¯ĥ": 342,
  "ê¯ĳê¯Ħ": 657,
  "ê¯ĳê¯ħ": 656,
  "ê¯ĳê¯Ĩ": 809,
  "ê¯ĳê¯ĩ": 375,
  "ê¯ĳê¯Ī": 326,
  "ê¯ĳê¯ī": 360,
  "ê¯ĳê¯ĭ": 810,
  "ê¯ĳê¯Į": 807,
  "ê¯ĳê¯į": 439,
  "ê¯ĳê¯Ĳ": 561,
  "ê¯ĳê¯Ĺ": 116,
  "ê¯ĳê¯Ĺê¯Ĵ": 412,
  "ê¯ĳê¯Ŀ": 483,
  "ê¯ĳê¯ŀ": 658,
  "ê¯Ĵ": 81,
  "ê¯Ĵê¯ģ": 354,
  "ê¯Ĵê¯ħ": 267,
  "ê¯Ĵê¯Ī": 639,
  "ê¯Ĵê¯Ĺ": 402,
  "ê¯Ĵê¯Ĺê¯ķ": 785,
  "ê¯Ĵê¯Ĺê¯ķê¯ħ": 641,
  "ê¯Ĵê¯ľ": 548,
  "ê¯Ĵê¯ľê¯Ĺ": 788,
  "ê¯Ĵê¯Ŀ": 547,
  "ê¯Ĵê¯ŀ": 640,
  "ê¯Ĵê¯łê¯Ĥ": 306,
  "ê¯Ĵê¯łê¯Ĥê¯Ľê¯Ģê¯Ĺ": 984,
  "ê¯Ĵê¯łê¯Ĥê¯Ľê¯Ħ": 983,
  "ê¯Ĵê¯łê¯Ħ": 472,
  "ê¯Ĵê¯łê¯ħ": 787,
  "ê¯Ĵê¯łê¯Ĩ": 786,
  "ê¯Ĵê¯łê¯Ĩê¯Ķ": 549,
  "ê¯Ĵê¯łê¯ŀ": 789,
  "ê¯Ķ": 75,
  "ê¯Ķê¯Ģ": 318,
  "ê¯Ķê¯ģ": 180,
  "ê¯Ķê¯ģê¯Ł": 605,
  "ê¯Ķê¯ĥ": 429,
  "ê¯Ķê¯Ħ": 767,
  "ê¯Ķê¯ħ": 231,
  "ê¯Ķê¯ĩ": 352,
  "ê¯Ķê¯Ĳ": 305,
  "ê¯Ķê¯Ĵ": 145,
  "ê¯Ķê¯Ĵê¯Ģ": 913,
  "ê¯Ķê¯Ĵê¯ģ": 293,
  "ê¯Ķê¯Ĵê¯ħ": 719,
  "ê¯Ķê¯Ĵê¯Ĺ": 250,
  "ê¯Ķê¯Ĵê¯Ł": 912,
  "ê¯Ķê¯Ķ": 766,
  "ê¯Ķê¯ķ": 224,
  "ê¯Ķê¯ķê¯Ģ": 769,
  "ê¯Ķê¯ķê¯ħ": 276,
  "ê¯Ķê¯ĸ": 395,
  "ê¯Ķê¯Ĺ": 207,
  "ê¯Ķê¯Ĺê¯ķê¯ħ": 958,
  "ê¯Ķê¯ļ": 628,
  "ê¯Ķê¯Ľ": 257,
  "ê¯Ķê¯Ľê¯Ģ": 353,
  "ê¯Ķê¯Ľê¯Ħ": 283,
  "ê¯Ķê¯Ľê¯Ħê¯ģ": 980,
  "ê¯Ķê¯Ľê¯Ħê¯ħ": 529,
  "ê¯Ķê¯Ľê¯Ħê¯Ĺ": 396,
  "ê¯Ķê¯Ľê¯ĩ": 372,
  "ê¯Ķê¯Ľê¯ĳ": 194,
  "ê¯Ķê¯Ľê¯ĳê¯ħ": 738,
  "ê¯Ķê¯Ľê¯ĳê¯Ĵ": 607,
  "ê¯Ķê¯Ľê¯ŀ": 771,
  "ê¯Ķê¯Ŀê¯ĥ": 265,
  "ê¯Ķê¯Ŀê¯ħ": 542,
  "ê¯Ķê¯Ŀê¯į": 772,
  "ê¯Ķê¯Ŀê¯Ĵ": 770,
  "ê¯Ķê¯Ŀê¯Ĵê¯ħ": 543,
  "ê¯Ķê¯Ŀê¯ķ": 768,
  "ê¯Ķê¯Ŀê¯Ĺ": 627,
  "ê¯Ķê¯Ł": 626,
  "ê¯Ķê¯ł": 467,
  "ê¯ķ": 79,
  "ê¯ķê¯Ģ": 150,
  "ê¯ķê¯ģ": 246,
  "ê¯ķê¯Ĥ": 635,
  "ê¯ķê¯ħ": 136,
  "ê¯ķê¯ĩ": 373,
  "ê¯ķê¯Ĵ": 227,
  "ê¯ķê¯Ķ": 633,
  "ê¯ķê¯ĸ": 781,
  "ê¯ķê¯Ĺ": 161,
  "ê¯ķê¯Ĺê¯Ĵ": 516,
  "ê¯ķê¯Ľ": 398,
  "ê¯ķê¯Ľê¯ģ": 636,
  "ê¯ķê¯Ŀ": 634,
  "ê¯ķê¯Ł": 780,
  "ê¯ĸ": 101,
  "ê¯ĸê¯Ģ": 567,
  "ê¯ĸê¯ħ": 362,
  "ê¯ĸê¯Ī": 829,
  "ê¯ĸê¯Ĵ": 298,
  "ê¯ĸê¯Ķ": 166,
  "ê¯ĸê¯Ķê¯ħ": 732,
  "ê¯ĸê¯Ķê¯Ĵ": 671,
  "ê¯ĸê¯Ķê¯Ľê¯Ģ": 518,
  "ê¯ĸê¯ķ": 232,
  "ê¯ĸê¯ķê¯ħ": 443,
  "ê¯ĸê¯ķê¯Ĺ": 830,
  "ê¯ĸê¯Ĺ": 272,
  "ê¯ĸê¯Ł": 408,
  "ê¯ĸê¯ł": 670,
  "ê¯Ĺ": 71,
  "ê¯Ĺê¯Ģ": 394,
  "ê¯Ĺê¯ģ": 351,
  "ê¯Ĺê¯ĥ": 623,
  "ê¯Ĺê¯ĥê¯Ľ": 540,
  "ê¯Ĺê¯ĥê¯Ľê¯ł": 756,
  "ê¯Ĺê¯ħ": 171,
  "ê¯Ĺê¯ħê¯Ģ": 460,
  "ê¯Ĺê¯Į": 624,
  "ê¯Ĺê¯Ĵ": 193,
  "ê¯Ĺê¯Ķ": 350,
  "ê¯Ĺê¯ķ": 172,
  "ê¯Ĺê¯ķê¯ģ": 601,
  "ê¯Ĺê¯ķê¯ħ": 274,
  "ê¯Ĺê¯ķê¯Ĵ": 602,
  "ê¯Ĺê¯Ĺ": 465,
  "ê¯Ĺê¯Ľ": 539,
  "ê¯Ĺê¯Ł": 335,
  "ê¯Ļ": 761,
  "ê¯ļ": 177,
  "ê¯ļê¯Ķ": 604,
  "ê¯Ľ": 87,
  "ê¯Ľê¯Ģ": 165,
  "ê¯Ľê¯Ģê¯ģ": 457,
  "ê¯Ľê¯Ģê¯ħ": 731,
  "ê¯Ľê¯Ģê¯Ĺ": 388,
  "ê¯Ľê¯ģ": 170,
  "ê¯Ľê¯ģê¯Ģ": 935,
  "ê¯Ľê¯ģê¯ĩ": 521,
  "ê¯Ľê¯ģê¯Ł": 520,
  "ê¯Ľê¯ģê¯Łê¯ģ": 936,
  "ê¯Ľê¯Ĥ": 307,
  "ê¯Ľê¯Ĥê¯Ľê¯ĳ": 530,
  "ê¯Ľê¯ĥ": 651,
  "ê¯Ľê¯Ħ": 159,
  "ê¯Ľê¯Ħê¯ģ": 456,
  "ê¯Ľê¯Ħê¯ħ": 367,
  "ê¯Ľê¯Ħê¯Ĵ": 728,
  "ê¯Ľê¯Ħê¯Ĺ": 239,
  "ê¯Ľê¯ħ": 286,
  "ê¯Ľê¯ħê¯ķ": 653,
  "ê¯Ľê¯Ĩ": 259,
  "ê¯Ľê¯Ĩê¯į": 974,
  "ê¯Ľê¯Ĩê¯Ķ": 973,
  "ê¯Ľê¯ĩ": 143,
  "ê¯Ľê¯ĩê¯ħ": 511,
  "ê¯Ľê¯ĩê¯Ķ": 909,
  "ê¯Ľê¯ĩê¯Ĺ": 718,
  "ê¯Ľê¯Ī": 324,
  "ê¯Ľê¯Ĭ": 435,
  "ê¯Ľê¯İ": 554,
  "ê¯Ľê¯İê¯Ķê¯Ĵ": 1006,
  "ê¯Ľê¯ı": 800,
  "ê¯Ľê¯ĳ": 139,
  "ê¯Ľê¯ĳê¯Ĵ": 255,
  "ê¯Ľê¯ĳê¯ķê¯ħ": 715,
  "ê¯Ľê¯ĳê¯Ĺ": 652,
  "ê¯Ľê¯ĳê¯Ŀê¯ĥ": 908,
  "ê¯Ľê¯ĳê¯Ŀê¯Ĺ": 716,
  "ê¯Ľê¯ĸ": 477,
  "ê¯Ľê¯Ľ": 553,
  "ê¯Ľê¯ŀ": 214,
  "ê¯Ľê¯Ł": 650,
  "ê¯Ľê¯ł": 359,
  "ê¯ľ": 118,
  "ê¯ľê¯ģ": 249,
  "ê¯ľê¯Ĥ": 169,
  "ê¯ľê¯Ĥê¯ģ": 933,
  "ê¯ľê¯Ĥê¯Ĵ": 303,
  "ê¯ľê¯Ĥê¯Ľê¯ĳ": 459,
  "ê¯ľê¯Ĥê¯Ľê¯ĳê¯ħ": 1002,
  "ê¯ľê¯Ĥê¯Ŀê¯ĥ": 934,
  "ê¯ľê¯Ħ": 494,
  "ê¯ľê¯ħ": 580,
  "ê¯ľê¯ĩ": 581,
  "ê¯ľê¯į": 863,
  "ê¯ľê¯Ĵ": 446,
  "ê¯ľê¯ĸ": 582,
  "ê¯ľê¯Ĺ": 263,
  "ê¯ľê¯Ĺê¯Ĵ": 865,
  "ê¯ľê¯ļ": 864,
  "ê¯ľê¯ŀ": 696,
  "ê¯Ŀ": 82,
  "ê¯Ŀê¯ģ": 189,
  "ê¯Ŀê¯Ĥ": 474,
  "ê¯Ŀê¯ĥ": 164,
  "ê¯Ŀê¯ĥê¯Ĵ": 333,
  "ê¯Ŀê¯ĥê¯Ĵê¯Ĺ": 988,
  "ê¯Ŀê¯ĥê¯ķê¯ħ": 931,
  "ê¯Ŀê¯Ħ": 258,
  "ê¯Ŀê¯Ħê¯Ķ": 750,
  "ê¯Ŀê¯ħ": 162,
  "ê¯Ŀê¯ħê¯ģ": 424,
  "ê¯Ŀê¯ħê¯ĥê¯Ľ": 600,
  "ê¯Ŀê¯ħê¯ķ": 730,
  "ê¯Ŀê¯ħê¯Ĺ": 929,
  "ê¯Ŀê¯ĩ": 355,
  "ê¯Ŀê¯Ī": 473,
  "ê¯Ŀê¯Ĭ": 357,
  "ê¯Ŀê¯į": 374,
  "ê¯Ŀê¯įê¯Łê¯ķ": 994,
  "ê¯Ŀê¯Ĳ": 356,
  "ê¯Ŀê¯Ĳê¯Ŀê¯Ĺ": 989,
  "ê¯Ŀê¯Ĵ": 182,
  "ê¯Ŀê¯Ĵê¯ħ": 369,
  "ê¯Ŀê¯ķ": 130,
  "ê¯Ŀê¯ķê¯ģ": 384,
  "ê¯Ŀê¯ķê¯ħ": 588,
  "ê¯Ŀê¯ķê¯Ĵ": 506,
  "ê¯Ŀê¯ķê¯Ĺ": 330,
  "ê¯Ŀê¯ķê¯Łê¯Ĺ": 896,
  "ê¯Ŀê¯ĸ": 217,
  "ê¯Ŀê¯ĸê¯Ĵ": 961,
  "ê¯Ŀê¯ĸê¯Ķ": 433,
  "ê¯Ŀê¯Ĺ": 144,
  "ê¯Ŀê¯Ĺê¯Ģ": 910,
  "ê¯Ŀê¯Ĺê¯ģ": 597,
  "ê¯Ŀê¯Ĺê¯Ĵ": 598,
  "ê¯Ŀê¯Ĺê¯ķê¯Ĺ": 911,
  "ê¯Ŀê¯Ł": 197,
  "ê¯Ŀê¯ł": 790,
  "ê¯ŀ": 127,
  "ê¯ŀê¯Ģ": 704,
  "ê¯ŀê¯Ģê¯ħ": 889,
  "ê¯ŀê¯ģ": 416,
  "ê¯ŀê¯Ĥ": 886,
  "ê¯ŀê¯Ħ": 200,
  "ê¯ŀê¯Ħê¯Ĵ": 956,
  "ê¯ŀê¯Ħê¯Ĺ": 608,
  "ê¯ŀê¯ħ": 503,
  "ê¯ŀê¯Ĩ": 312,
  "ê¯ŀê¯Ĩê¯Ķê¯Ľê¯Ģ": 531,
  "ê¯ŀê¯ĩ": 301,
  "ê¯ŀê¯Ī": 705,
  "ê¯ŀê¯Ĭ": 887,
  "ê¯ŀê¯Ĳê¯Ŀ": 888,
  "ê¯ŀê¯ŀ": 448,
  "ê¯Ł": 84,
  "ê¯Łê¯Ģ": 796,
  "ê¯Łê¯ģ": 187,
  "ê¯Łê¯ģê¯ĩê¯Ĵ": 389,
  "ê¯Łê¯ģê¯Ł": 734,
  "ê¯Łê¯Ĥ": 168,
  "ê¯Łê¯Ĥê¯ħ": 932,
  "ê¯Łê¯Ĥê¯Ĵ": 458,
  "ê¯Łê¯Ĥê¯Ĺ": 519,
  "ê¯Łê¯Ĥê¯Ľê¯ĳ": 425,
  "ê¯Łê¯ĥ": 795,
  "ê¯Łê¯ħ": 135,
  "ê¯Łê¯ħê¯ģ": 421,
  "ê¯Łê¯ħê¯ħ": 420,
  "ê¯Łê¯ħê¯Ĭ": 901,
  "ê¯Łê¯ħê¯Ĵ": 422,
  "ê¯Łê¯ħê¯Ĵê¯Ĺê¯ķ": 998,
  "ê¯Łê¯ħê¯Ķ": 452,
  "ê¯Łê¯ħê¯Ķê¯ģ": 595,
  "ê¯Łê¯ħê¯Ķê¯Ĵ": 594,
  "ê¯Łê¯ħê¯Ķê¯Ŀê¯ĥ": 903,
  "ê¯Łê¯ħê¯ķ": 245,
  "ê¯Łê¯ħê¯ķê¯ħ": 593,
  "ê¯Łê¯ħê¯ĸê¯ķ": 902,
  "ê¯Łê¯ħê¯Ĺ": 509,
  "ê¯Łê¯ĩ": 208,
  "ê¯Łê¯Ī": 279,
  "ê¯Łê¯ī": 647,
  "ê¯Łê¯Ĭ": 322,
  "ê¯Łê¯Ĵ": 201,
  "ê¯Łê¯Ĵê¯Ĺ": 740,
  "ê¯Łê¯Ĵê¯Ĺê¯ķ": 609,
  "ê¯Łê¯Ķê¯ģ": 798,
  "ê¯Łê¯ķ": 176,
  "ê¯Łê¯ķê¯ħ": 648,
  "ê¯Łê¯ķê¯Ĵ": 733,
  "ê¯Łê¯ķê¯Ĺ": 285,
  "ê¯Łê¯ĸ": 204,
  "ê¯Łê¯ĸê¯Ī": 957,
  "ê¯Łê¯ĸê¯Ķ": 280,
  "ê¯Łê¯ĸê¯Ķê¯Ĵ": 742,
  "ê¯Łê¯ĸê¯Ķê¯Ľê¯Ģ": 979,
  "ê¯Łê¯ĸê¯Ĺ": 741,
  "ê¯Łê¯Ĺ": 134,
  "ê¯Łê¯Ĺê¯ģ": 712,
  "ê¯Łê¯Ĺê¯ħ": 592,
  "ê¯Łê¯Ĺê¯Ĵ": 419,
  "ê¯Łê¯Ĺê¯Ĺ": 591,
  "ê¯Łê¯Ĺê¯Ł": 900,
  "ê¯Łê¯ľ": 646,
  "ê¯Łê¯ľê¯Ĥ": 797,
  "ê¯Łê¯Ł": 183,
  "ê¯Łê¯ł": 248,
  "ê¯Łê¯łê¯ģ": 649,
  "ê¯ł": 99,
  "ê¯łê¯Ģ": 297,
  "ê¯łê¯ģ": 202,
  "ê¯łê¯Ĥ": 163,
  "ê¯łê¯Ĥê¯ģ": 517,
  "ê¯łê¯Ĥê¯Ĵ": 332,
  "ê¯łê¯Ĥê¯Ľê¯ĳê¯Ĵ": 930,
  "ê¯łê¯Ħ": 220,
  "ê¯łê¯Ħê¯ģ": 965,
  "ê¯łê¯Ħê¯ħ": 964,
  "ê¯łê¯Ħê¯Ĵ": 966,
  "ê¯łê¯Ħê¯Ĺ": 963,
  "ê¯łê¯ħ": 253,
  "ê¯łê¯ħê¯ķ": 669,
  "ê¯łê¯Ĩ": 203,
  "ê¯łê¯Ĩê¯Ķ": 316,
  "ê¯łê¯Ĩê¯Ķê¯Ľê¯Ģ": 986,
  "ê¯łê¯Ĩê¯ķ": 526,
  "ê¯łê¯ĩ": 152,
  "ê¯łê¯ĩê¯ħ": 513,
  "ê¯łê¯ĩê¯ķ": 726,
  "ê¯łê¯ĩê¯Ł": 919,
  "ê¯łê¯Ī": 442,
  "ê¯łê¯Ĳ": 828,
  "ê¯łê¯Ķ": 827,
  "ê¯łê¯ķ": 668,
  "ê¯łê¯ŀ": 281,
  "ê¯Ń": 85,
  "ê¯Ńê¯¨": 799,
  "Ċ": 32,
  "č": 33,
  "čĊ": 77,
  "Ġ": 34,
  "Ġê¯": 68,
  "Ġê¯¢": 393,
  "Ġê¯¢ê¯Łê¯ģê¯ĩê¯Ĵ": 753,
  "Ġê¯«": 90,
  "Ġê¯±": 371,
  "Ġê¯±ê¯°": 993,
  "Ġê¯²": 264,
  "Ġê¯²ê¯": 370,
  "Ġê¯²ê¯´": 752,
  "Ġê¯²ê¯¶": 991,
  "Ġê¯²ê¯¸": 992,
  "Ġê¯³": 428,
  "Ġê¯´": 618,
  "Ġê¯µ": 535,
  "Ġê¯¶": 536,
  "Ġê¯·": 619,
  "Ġê¯¸": 620,
  "Ġê¯Ģ": 103,
  "Ġê¯Ģê¯Ĥ": 409,
  "Ġê¯Ģê¯ĥ": 205,
  "Ġê¯Ģê¯ħ": 363,
  "Ġê¯Ģê¯Į": 299,
  "Ġê¯Ģê¯Ķ": 237,
  "Ġê¯Ģê¯Ķê¯Ŀê¯ķ": 463,
  "Ġê¯Ģê¯Ĺ": 833,
  "Ġê¯Ģê¯Ł": 569,
  "Ġê¯Ģê¯Łê¯Ł": 674,
  "Ġê¯ģ": 95,
  "Ġê¯ģê¯Ħ": 376,
  "Ġê¯ģê¯ħ": 818,
  "Ġê¯ģê¯ĩ": 821,
  "Ġê¯ģê¯ķ": 819,
  "Ġê¯ģê¯Ľ": 820,
  "Ġê¯ģê¯Ŀ": 662,
  "Ġê¯ģê¯Ŀê¯ħ": 823,
  "Ġê¯ģê¯Ŀê¯ĭ": 1009,
  "Ġê¯ģê¯Ŀê¯ķ": 822,
  "Ġê¯ģê¯Łê¯Ĭ": 663,
  "Ġê¯ģê¯Łê¯Ĺ": 563,
  "Ġê¯Ĥ": 104,
  "Ġê¯Ĥê¯Ŀê¯Ĳ": 676,
  "Ġê¯Ĥê¯Ŀê¯ķ": 675,
  "Ġê¯Ĥê¯Ł": 834,
  "Ġê¯ĥ": 89,
  "Ġê¯ĥê¯Ģ": 478,
  "Ġê¯ĥê¯ģ": 260,
  "Ġê¯ĥê¯ģê¯Ľ": 975,
  "Ġê¯ĥê¯ĥ": 240,
  "Ġê¯ĥê¯Ħ": 555,
  "Ġê¯ĥê¯ħ": 186,
  "Ġê¯ĥê¯ħê¯Ŀ": 347,
  "Ġê¯ĥê¯ħê¯Ŀê¯ģ": 315,
  "Ġê¯ĥê¯Ĩ": 228,
  "Ġê¯ĥê¯ĩ": 175,
  "Ġê¯ĥê¯ĩê¯Ŀ": 522,
  "Ġê¯ĥê¯ĩê¯Ŀê¯Ĺ": 251,
  "Ġê¯ĥê¯ĩê¯Ŀê¯Ĺê¯ģ": 748,
  "Ġê¯ĥê¯Ī": 241,
  "Ġê¯ĥê¯Īê¯ľ": 746,
  "Ġê¯ĥê¯ī": 479,
  "Ġê¯ĥê¯Ĭ": 270,
  "Ġê¯ĥê¯Ĭê¯Łê¯ĩ": 977,
  "Ġê¯ĥê¯Į": 131,
  "Ġê¯ĥê¯į": 269,
  "Ġê¯ĥê¯Ĳ": 480,
  "Ġê¯ĥê¯Ĳê¯Ŀê¯ģ": 617,
  "Ġê¯ĥê¯ĳ": 654,
  "Ġê¯ĥê¯Ĵ": 802,
  "Ġê¯ĥê¯Ķ": 190,
  "Ġê¯ĥê¯Ķê¯Ľê¯ĩ": 941,
  "Ġê¯ĥê¯Ķê¯Ŀ": 735,
  "Ġê¯ĥê¯Ĺ": 801,
  "Ġê¯ĥê¯ľê¯ĩ": 804,
  "Ġê¯ĥê¯Ŀ": 803,
  "Ġê¯ĥê¯Ł": 436,
  "Ġê¯Ħ": 115,
  "Ġê¯Ħê¯Ĥ": 855,
  "Ġê¯Ħê¯Ŀê¯Ĺ": 856,
  "Ġê¯ħ": 112,
  "Ġê¯ħê¯Ħ": 690,
  "Ġê¯ħê¯ĩ": 846,
  "Ġê¯ħê¯į": 364,
  "Ġê¯ħê¯Ŀê¯ĥ": 848,
  "Ġê¯ħê¯Ŀê¯ħ": 847,
  "Ġê¯ħê¯Ŀê¯Ĵ": 849,
  "Ġê¯ħê¯Ŀê¯ķ": 243,
  "Ġê¯ħê¯Ŀê¯ķê¯Ķ": 528,
  "Ġê¯ħê¯Ŀê¯ķê¯Ķê¯Ĺ": 970,
  "Ġê¯ħê¯Ŀê¯ķê¯Ŀ": 426,
  "Ġê¯ħê¯Ŀê¯Ĺ": 576,
  "Ġê¯ħê¯łê¯ĩ": 209,
  "Ġê¯Ĩ": 114,
  "Ġê¯Ĩê¯Ķ": 852,
  "Ġê¯Ĩê¯ŀ": 853,
  "Ġê¯Ĩê¯ŀê¯ĩ": 854,
  "Ġê¯Ĩê¯ł": 195,
  "Ġê¯Ĩê¯łê¯Ģ": 739,
  "Ġê¯Ĩê¯łê¯Ģê¯ħ": 952,
  "Ġê¯Ĩê¯łê¯ģ": 949,
  "Ġê¯Ĩê¯łê¯Ĥ": 289,
  "Ġê¯Ĩê¯łê¯Ħ": 390,
  "Ġê¯Ĩê¯łê¯Ħê¯Ĵ": 996,
  "Ġê¯Ĩê¯łê¯ħ": 948,
  "Ġê¯Ĩê¯łê¯ħê¯Ķ": 951,
  "Ġê¯Ĩê¯łê¯ħê¯ķ": 950,
  "Ġê¯Ĩê¯łê¯ĩ": 327,
  "Ġê¯Ĩê¯łê¯ĩê¯ħê¯ķ": 987,
  "Ġê¯Ĩê¯łê¯Ī": 461,
  "Ġê¯Ĩê¯łê¯ŀ": 391,
  "Ġê¯ĩ": 102,
  "Ġê¯ĩê¯ģ": 831,
  "Ġê¯ĩê¯ħ": 568,
  "Ġê¯ĩê¯Ĵ": 832,
  "Ġê¯ĩê¯Ķ": 672,
  "Ġê¯ĩê¯Ľ": 673,
  "Ġê¯Ī": 111,
  "Ġê¯Īê¯Ķ": 223,
  "Ġê¯Īê¯Ķê¯ģ": 843,
  "Ġê¯Īê¯Ķê¯Ĺ": 688,
  "Ġê¯Īê¯ĸ": 686,
  "Ġê¯Īê¯Ľê¯ĩ": 379,
  "Ġê¯Īê¯Ľê¯ĩê¯Ĺ": 995,
  "Ġê¯Īê¯ľê¯Ĥ": 489,
  "Ġê¯Īê¯ľê¯Ĥê¯Ĵ": 490,
  "Ġê¯Īê¯Łê¯Ĥ": 380,
  "Ġê¯Īê¯Łê¯Ĵ": 844,
  "Ġê¯Īê¯Łê¯ķ": 381,
  "Ġê¯Īê¯Łê¯ķê¯Ĺ": 845,
  "Ġê¯Īê¯Łê¯ĸê¯Ķ": 689,
  "Ġê¯Īê¯Łê¯Ĺ": 687,
  "Ġê¯ī": 146,
  "Ġê¯īê¯ģ": 213,
  "Ġê¯īê¯Ķ": 720,
  "Ġê¯īê¯Ŀê¯ĥ": 512,
  "Ġê¯īê¯Ŀê¯Ī": 914,
  "Ġê¯īê¯Ŀê¯į": 722,
  "Ġê¯īê¯Ŀê¯ķ": 453,
  "Ġê¯īê¯Ŀê¯ĸ": 721,
  "Ġê¯īê¯Ŀê¯Ĺ": 423,
  "Ġê¯īê¯Ŀê¯Ĺê¯ķ": 999,
  "Ġê¯Ĭ": 119,
  "Ġê¯Ĭê¯Ķ": 495,
  "Ġê¯Ĭê¯ķ": 866,
  "Ġê¯Ĭê¯ķê¯Ľ": 497,
  "Ġê¯Ĭê¯Ľê¯Ģê¯Ĺ": 869,
  "Ġê¯Ĭê¯Ľê¯Ħê¯Ĺ": 867,
  "Ġê¯Ĭê¯Ŀê¯ĥ": 583,
  "Ġê¯Ĭê¯Ŀê¯Ĵê¯ħ": 868,
  "Ġê¯Ĭê¯Ŀê¯ĸ": 496,
  "Ġê¯ĭ": 153,
  "Ġê¯Į": 106,
  "Ġê¯Įê¯Ķ": 573,
  "Ġê¯į": 94,
  "Ġê¯įê¯Į": 659,
  "Ġê¯įê¯Ķ": 308,
  "Ġê¯įê¯Ľê¯Ĩ": 484,
  "Ġê¯įê¯ľê¯Ĥ": 815,
  "Ġê¯įê¯ľê¯Ĥê¯Ĵ": 816,
  "Ġê¯įê¯Łê¯Ĥ": 814,
  "Ġê¯įê¯Łê¯ħ": 813,
  "Ġê¯įê¯Łê¯Ĭ": 817,
  "Ġê¯įê¯Łê¯ĸ": 661,
  "Ġê¯įê¯Łê¯ĸê¯ķê¯Ŀ": 1008,
  "Ġê¯įê¯Łê¯Ĺ": 236,
  "Ġê¯įê¯Łê¯Ĺê¯Ľê¯ĩ": 745,
  "Ġê¯įê¯Łê¯Ł": 660,
  "Ġê¯İ": 191,
  "Ġê¯İê¯ĥ": 523,
  "Ġê¯İê¯ħê¯Ķê¯Ĵ": 946,
  "Ġê¯İê¯Ķ": 943,
  "Ġê¯İê¯Ķê¯ķ": 944,
  "Ġê¯İê¯ķ": 736,
  "Ġê¯İê¯Ĺ": 942,
  "Ġê¯İê¯łê¯Ģ": 945,
  "Ġê¯İê¯łê¯Ĥ": 524,
  "Ġê¯İê¯łê¯Ĥê¯Ľê¯Ģ": 755,
  "Ġê¯İê¯łê¯Ĩ": 737,
  "Ġê¯ı": 133,
  "Ġê¯ıê¯Ģ": 710,
  "Ġê¯ıê¯ģ": 238,
  "Ġê¯ıê¯ĥ": 313,
  "Ġê¯ıê¯Ħ": 450,
  "Ġê¯ıê¯ħ": 230,
  "Ġê¯ıê¯Ĩ": 210,
  "Ġê¯ıê¯Ĩê¯Łê¯ħ": 959,
  "Ġê¯ıê¯ĩ": 590,
  "Ġê¯ıê¯Ĭ": 898,
  "Ġê¯ıê¯Į": 897,
  "Ġê¯ıê¯ķ": 292,
  "Ġê¯ıê¯Ĺ": 709,
  "Ġê¯ıê¯ļ": 711,
  "Ġê¯ıê¯Ŀê¯Ħ": 508,
  "Ġê¯ıê¯Ŀê¯Ĳ": 899,
  "Ġê¯ıê¯Ł": 507,
  "Ġê¯ıê¯Łê¯ĩ": 451,
  "Ġê¯ıê¯Łê¯Ĳ": 754,
  "Ġê¯Ĳ": 124,
  "Ġê¯Ĳê¯ħ": 584,
  "Ġê¯Ĳê¯Ķ": 415,
  "Ġê¯Ĳê¯ķ": 500,
  "Ġê¯Ĳê¯ĸ": 244,
  "Ġê¯Ĳê¯ĸê¯ħ": 616,
  "Ġê¯Ĳê¯ĸê¯Ķê¯ħ": 881,
  "Ġê¯Ĳê¯ĸê¯ķ": 880,
  "Ġê¯Ĳê¯ĸê¯Ĺ": 615,
  "Ġê¯Ĳê¯ĸê¯Ł": 427,
  "Ġê¯Ĳê¯ĸê¯Łê¯Ł": 971,
  "Ġê¯Ĳê¯Ŀ": 879,
  "Ġê¯Ĳê¯Ł": 365,
  "Ġê¯ĳ": 80,
  "Ġê¯ĳê¯Ģ": 431,
  "Ġê¯ĳê¯ģ": 225,
  "Ġê¯ĳê¯ĥ": 137,
  "Ġê¯ĳê¯ĥê¯ģ": 385,
  "Ġê¯ĳê¯ĥê¯ħ": 331,
  "Ġê¯ĳê¯ĥê¯ĩ": 713,
  "Ġê¯ĳê¯ĥê¯Ī": 510,
  "Ġê¯ĳê¯ĥê¯Ĵ": 596,
  "Ġê¯ĳê¯ĥê¯Ķ": 904,
  "Ġê¯ĳê¯ĥê¯Ĺ": 302,
  "Ġê¯ĳê¯ĥê¯Ĺê¯Ĵ": 906,
  "Ġê¯ĳê¯ĥê¯Ŀ": 905,
  "Ġê¯ĳê¯ĥê¯łê¯ĩ": 714,
  "Ġê¯ĳê¯Ħ": 400,
  "Ġê¯ĳê¯ħ": 184,
  "Ġê¯ĳê¯Ĩ": 637,
  "Ġê¯ĳê¯ĩ": 471,
  "Ġê¯ĳê¯Ī": 181,
  "Ġê¯ĳê¯ī": 226,
  "Ġê¯ĳê¯īê¯Ŀ": 968,
  "Ġê¯ĳê¯īê¯Ŀê¯ķ": 612,
  "Ġê¯ĳê¯Ĭ": 784,
  "Ġê¯ĳê¯ĭ": 254,
  "Ġê¯ĳê¯Į": 782,
  "Ġê¯ĳê¯į": 196,
  "Ġê¯ĳê¯įê¯Ł": 953,
  "Ġê¯ĳê¯įê¯Łê¯ħ": 954,
  "Ġê¯ĳê¯ıê¯Ĺ": 783,
  "Ġê¯ĳê¯Ĳê¯ķ": 432,
  "Ġê¯ĳê¯Ĵ": 399,
  "Ġê¯ĳê¯Ķ": 320,
  "Ġê¯ĳê¯Ĺ": 108,
  "Ġê¯ĳê¯Ĺê¯Ĵ": 287,
  "Ġê¯ĳê¯Ŀ": 174,
  "Ġê¯ĳê¯Ŀê¯ģ": 937,
  "Ġê¯ĳê¯Ŀê¯ĩ": 603,
  "Ġê¯ĳê¯Ŀê¯Ĳ": 938,
  "Ġê¯ĳê¯ŀ": 638,
  "Ġê¯ĳê¯Łê¯ķ": 401,
  "Ġê¯Ĵ": 151,
  "Ġê¯Ķ": 192,
  "Ġê¯Ķê¯ħ": 947,
  "Ġê¯ķ": 157,
  "Ġê¯ķê¯ĩ": 927,
  "Ġê¯ķê¯ķ": 515,
  "Ġê¯ĸ": 198,
  "Ġê¯Ĺ": 149,
  "Ġê¯Ĺê¯ģ": 599,
  "Ġê¯Ĺê¯ĥê¯Ľê¯ĩ": 918,
  "Ġê¯Ĺê¯ħ": 724,
  "Ġê¯Ĺê¯Ĵ": 454,
  "Ġê¯Ĺê¯Ķê¯Ģ": 725,
  "Ġê¯Ĺê¯Ľ": 917,
  "Ġê¯Ĺê¯Ł": 916,
  "Ġê¯Ļ": 763,
  "Ġê¯ļ": 160,
  "Ġê¯ļê¯Ĥ": 729,
  "Ġê¯Ľ": 621,
  "Ġê¯Ŀ": 234,
  "Ġê¯Ŀê¯ĩ": 613,
  "Ġê¯Ŀê¯Į": 614,
  "Ġê¯Ł": 537,
  "ĠčĊ": 141,
  "ĠĠčĊ": 392,
  "Ģ": 35,
  "ģ": 36,
  "Ĥ": 37,
  "ĥ": 38,
  "Ħ": 39,
  "ħ": 40,
  "Ĩ": 41,
  "ĩ": 42,
  "Ī": 43,
  "ī": 44,
  "Ĭ": 45,
  "ĭ": 46,
  "Į": 47,
  "į": 48,
  "İ": 49,
  "ı": 50,
  "Ĳ": 51,
  "ĳ": 52,
  "Ĵ": 53,
  "Ķ": 54,
  "ķ": 55,
  "ĸ": 56,
  "Ĺ": 57,
  "Ļ": 58,
  "ļ": 59,
  "Ľ": 60,
  "ľ": 61,
  "Ŀ": 62,
  "ŀ": 63,
  "Ł": 64,
  "ł": 65,
  "Ń": 66
}
